#version: 0.2
h e</w>
i n
▁t he</w>
t i
e r
e n
e d</w>
a n
o n
a ▁
o r
o n</w>
o t
q u
a r
e ▁
o ▁
▁o f</w>
t ▁
in g</w>
n d</w>
o u
i ▁
e r</w>
ot ;</w>
r e
▁t o</w>
▁t h
e s</w>
i t
e c
& qu
o s
i c
a l</w>
r o
e s
▁a nd</w>
a ti
e a
i s
i l
o r</w>
t h
- @</w>
a l
o m
▁i n</w>
t he</w>
a t
a t</w>
&qu ot;</w>
e l
@ -@</w>
en t</w>
a n</w>
a s</w>
u r
▁i s</w>
t s</w>
t r
p os
e n</w>
c e</w>
a s
u s
o l
e m
v e</w>
▁ e</w>
t▁ he</w>
▁i n
a c
i s</w>
l y</w>
ati on</w>
▁w h
i d
i n</w>
n g</w>
l e</w>
▁th at</w>
▁ u
r e</w>
t h</w>
u c
▁& qu
an d</w>
i g
u ▁
o f</w>
▁T he</w>
p ▁
c h
r ▁
a m
u l
pos ;
▁f or</w>
s ▁
t o</w>
er e</w>
ti on</w>
& a▁
▁o n</w>
e t
v er
a g
f f
i r
a y</w>
p l
u n
h ▁
it h</w>
i m
▁i t</w>
o p
er s</w>
▁b e</w>
t er</w>
▁a s</w>
▁p ro
c ▁
▁c on
t ed</w>
▁r e
w ▁
m ent</w>
a▁ nd</w>
&a▁ pos;
re s
▁b y</w>
o t</w>
il l</w>
o o
▁e x
s t
▁s h
o▁ t
i on</w>
a d
o u</w>
o c
▁s t
a p
o▁t ;</w>
▁c om
a b
u t</w>
o w
u d
▁w ith</w>
f ▁
it y</w>
e v
r i
e t</w>
in ▁
p or
▁w as</w>
l ▁
on g</w>
▁a re</w>
▁h a
s e</w>
ot ▁
ou n
on s</w>
& ▁
t er
e▁ n
at e</w>
i c</w>
i▁ ng</w>
s t</w>
m ▁
d ▁
al l</w>
i t</w>
▁, ,</w>
i ti
l d</w>
a k
ot▁ ;</w>
p er
e x
i d</w>
▁w ill</w>
on g
▁a l
d uc
ro m</w>
c i
s u
an ▁
f or
▁y ou</w>
▁K or
a y
ic e</w>
▁c h
▁a t</w>
q ▁u
i v
e e</w>
c on
c h</w>
t y</w>
e a</w>
o w</w>
▁ ot;</w>
▁th e
e d
▁&qu ot;</w>
▁T h
ti ▁
▁ s</w>
n ▁
e ar
i z
an g
e g
ic h</w>
▁ha ve</w>
ea r</w>
th ▁
en ▁
p ro
&a▁pos; s</w>
&▁ qu
y e
c om
d s</w>
s i
e en</w>
c l
▁f rom</w>
a t▁
▁s u
r ou
e p
en ts</w>
▁u n
p ec
i es</w>
t ur
e▁ r
th ▁e</w>
b ▁
o ver
i m</w>
on al</w>
a r</w>
& a
ar y</w>
u m
▁r es
▁h as</w>
▁a c
ig h
▁p l
d ing</w>
i r</w>
& q▁u
o▁ n</w>
en t
b l
▁a n</w>
o v
▁n ot</w>
a in
an t</w>
an ce</w>
▁p ar
▁I t</w>
es s</w>
▁wh ich</w>
l l</w>
w h
t ing</w>
a▁ r
▁I n</w>
at ed</w>
e▁ d</w>
s o</w>
▁C h
▁th is</w>
▁t r
ou t</w>
d er</w>
o▁ n
g ▁
▁p er
es t</w>
▁w or
▁e n
u t
g h</w>
a id</w>
▁o n
g e</w>
th er</w>
i al</w>
▁o r</w>
▁ ed</w>
or e</w>
ag e</w>
ou ld</w>
p r
▁c an</w>
ati ▁
a▁ n
e▁n t</w>
ar e</w>
f ter</w>
o▁ r
i▁ n
p an
▁wh o</w>
s h
ea n</w>
w i▁
il l
▁a b
▁d is
u e</w>
over n
e w</w>
on ▁
i f
▁a n
ff ic
im e</w>
▁ t</w>
▁sh all</w>
e l</w>
▁b ut</w>
uc h</w>
▁( (</w>
es s
ea d</w>
a us
ti c
ou r
o g
▁Kor ea</w>
p ar
f or</w>
▁&qu o▁t;</w>
m e</w>
em ent</w>
▁r ec
ol l
▁a d
a in</w>
as t</w>
em b
in is
k e</w>
- ▁
i b
in ce</w>
-▁ @</w>
e y</w>
en ce</w>
a m</w>
r e▁
ou r</w>
i t▁
an g</w>
ou s</w>
e m</w>
tr y</w>
▁i m
t en
in▁ g</w>
▁p r
ou ▁
▁m an
ak e</w>
ye ong
in g
▁d i
er ▁
&q▁u ot;</w>
op le</w>
; s</w>
b e</w>
o d
re c
▁th ere</w>
p▁ os
am e</w>
▁w ere</w>
er v
▁a p
a d</w>
ar ▁
e ople</w>
k s</w>
&qu o▁t;</w>
f▁ or</w>
&qu ▁ot;</w>
0 0</w>
om e</w>
or ▁
o▁ f</w>
@ -▁@</w>
▁W h
▁b ec
▁t ime</w>
por t</w>
in e</w>
es ti
▁y ear</w>
▁c l
s s
▁b een</w>
t e</w>
&▁qu ot;</w>
el y</w>
▁e v
▁h e</w>
g i</w>
cl ud
oo d</w>
t▁ o</w>
e f
▁a g
ati▁ on</w>
tur e</w>
ir st</w>
pos ▁
▁ -@</w>
b y</w>
k ing</w>
s ed</w>
aus e</w>
d i
▁i f</w>
t▁ h
c re
@ ▁-@</w>
al ly</w>
th▁ at</w>
e▁ r</w>
▁f or
iti es</w>
al l
u n</w>
a v
▁o r
for m
igh t</w>
u ng</w>
s tr
ec t</w>
▁I n
e▁ s</w>
▁s o</w>
as e</w>
ar d</w>
ati ons</w>
ro v
an▁ d</w>
id e</w>
▁Kor ean</w>
on e</w>
▁r el
▁s uch</w>
o▁ s
▁wh en</w>
o m</w>
C h
▁p re
i ve</w>
▁al so</w>
an d
w▁ h
s on</w>
ati onal</w>
e▁ c
u bl
en c
▁the ir</w>
a e</w>
or s</w>
▁p eople</w>
a f
y ▁
▁the y</w>
a ir
▁m ore</w>
▁a fter</w>
t u
e e
ad e</w>
ur e</w>
&qu ot▁;</w>
▁d o</w>
pos; s</w>
o b
o on</w>
o o</w>
▁&qu ▁ot;</w>
an c
ti v
an s</w>
▁s aid</w>
pos ;</w>
e a▁
▁con t
ab le</w>
▁b e
a ce</w>
p en
i ke</w>
il e</w>
i▁ n</w>
▁a t
os t</w>
u m</w>
▁th an</w>
ea l
res id
c or
it t
▁m e
om m
us t</w>
d ed</w>
▁com pan
i l</w>
▁ab out</w>
el l</w>
ar k
p re
al ▁
th at</w>
w o</w>
▁S e
o in
▁2 0
w as</w>
▁f irst</w>
▁& a
▁in v
re e</w>
it h
▁w e</w>
▁@ -@</w>
▁f ac
e w
es e</w>
K or
n ing</w>
ay s</w>
▁Th is</w>
u s</w>
overn ment</w>
▁ es</w>
▁com m
▁pro v
ev el
d is
p ol
ou l</w>
T he</w>
▁o ut</w>
s ti
es t
ci al</w>
u l</w>
ver s
▁h ead</w>
al s</w>
▁m y</w>
▁u p</w>
▁m ay</w>
▁s ec
▁a r
▁h is</w>
▁G yeong
wi▁ th</w>
ubl ic</w>
h er</w>
&a p▁os
▁in clud
el d</w>
▁K im</w>
p e
d us
d er
p res
▁re g
t▁ ed</w>
▁on e</w>
▁ h
a▁ s</w>
▁&qu ot▁;</w>
oo l</w>
g h
ig n
i ous</w>
il ▁
i p
g r
ig h</w>
or y</w>
▁su b
a▁ t</w>
l is
▁in ter
▁su p
▁m on
a ve</w>
▁bec ause</w>
ti▁ on</w>
S e
▁pro duc
re s</w>
rou gh</w>
us in
▁A c
p r▁
b er</w>
ati ve</w>
an s
it e</w>
ur r
e on</w>
s ion</w>
ar t
v ▁
▁e m
▁p ol
o p</w>
o d</w>
▁I f</w>
t or</w>
o▁ r</w>
t▁ er</w>
or th</w>
ti ons</w>
▁c oun
ic ▁
▁s ch
oo k</w>
i a</w>
s u▁
m e▁nt</w>
ic al</w>
ow n</w>
&▁ a
I n
oc al</w>
s id
os e</w>
a il
a w
▁m e</w>
K ▁
at ing</w>
f l
▁wh ere</w>
ill ion</w>
a▁ l
o y
it s</w>
▁al l</w>
▁i ts</w>
ol d</w>
▁s tr
▁ac c
ti ci
s t▁
▁A s</w>
s i▁
ou s
en d</w>
▁ha d</w>
w ith</w>
ear s</w>
▁o ther</w>
w or
ea se</w>
y st
▁f in
k ed</w>
▁st ud
w▁ as</w>
f r▁
▁y our</w>
▁Gyeong gi</w>
en▁ t</w>
▁q u
an n
e b
por t
u r</w>
▁a m
▁G u</w>
m s</w>
r o▁
▁W e</w>
▁d ue</w>
e▁r s</w>
i▁ s</w>
▁d ec
▁P ar
, 0
a▁ l</w>
h ed</w>
▁g overnment</w>
▁p os
pro v
▁o ffic
ec ▁
▁on ly</w>
▁w on</w>
S ▁
▁o p
a▁ n</w>
a▁ re</w>
▁w ith
j u</w>
ac k</w>
a i▁
▁n e
el l
▁S t
g an
en ti
ac h</w>
ing s</w>
▁l ea
o▁ m
is ▁
w h▁
▁Th ere</w>
si b
ig n</w>
r y</w>
▁e l
v er</w>
i ed</w>
▁p ublic</w>
ou gh</w>
e▁ re</w>
▁t wo</w>
e h
s el
as s
p h
▁includ ing</w>
ar ge</w>
▁m emb
2 0
ti ve</w>
d o</w>
in k</w>
i tion</w>
▁o per
▁in cre
ec h
itt ee</w>
▁th rough</w>
s pec
enc y</w>
il d
S .</w>
tr ▁
c er
as ed</w>
j ect</w>
▁l ike</w>
r u
is t
▁p ur
i p</w>
evel op
ark et</w>
i▁ c
▁l ast</w>
m an
e▁ s
▁m at
et w
m inis
gan iz
et y</w>
at es</w>
▁ n
▁t ea
▁un der</w>
pos▁ ;s</w>
w▁h o</w>
▁U n
o▁ ng</w>
▁p res
▁b u
ul t</w>
h e▁
▁d ay</w>
▁s m
il ity</w>
▁r ea
ul ar</w>
▁k n
▁f l
▁N orth</w>
ou th</w>
i▁ ty</w>
▁w ould</w>
t ers</w>
wi▁ ll</w>
▁n um
▁n o</w>
en ter</w>
v i
p on
il y</w>
ter n
ff er
ex t</w>
▁f i
un ▁
m er</w>
a▁ c
fr▁ om</w>
i▁ ch</w>
is e</w>
▁man y</w>
ol og
ap o▁s
ent ly</w>
▁d es
ri v
it ed</w>
esti g
en d
ap p
t ly</w>
▁n ew</w>
id ed</w>
em s</w>
en er
ow ing</w>
▁a re
▁P rov
ff ice</w>
T h
e ther</w>
▁the m</w>
▁20 1
▁h igh</w>
f ac
b e▁
a▁ te</w>
▁num ber</w>
yst em</w>
d ay</w>
re l
a▁ ll</w>
u p</w>
▁Ch in
resid ent</w>
s a▁
▁s erv
ur ing</w>
ro w
v en
ar g
▁sh ould</w>
w on</w>
if e</w>
▁A r
ang e</w>
c▁ h
▁man ag
▁s pec
▁s p
cor ding</w>
▁ex pec
usin ess</w>
t▁ s</w>
&a pos;s</w>
tici p
w ill</w>
com m
i vers
k ▁
▁m ed
K im</w>
iz ed</w>
l l
o k</w>
ti▁ ng</w>
for e</w>
▁d el
b ▁u
▁rec e
. S.</w>
j ▁
s es</w>
at▁ ion</w>
o▁n s</w>
,0 00</w>
in c
ou nd</w>
ic ation</w>
i r▁
▁Wh en</w>
str uc
a u
&ap▁os ;
ic es</w>
at er</w>
p le</w>
▁d r
▁m ade</w>
y ing</w>
m an</w>
us t
ov ▁
op er
▁l ocal</w>
h as</w>
▁g r
em ▁
ech n
i ons</w>
ec ess
es ▁
▁Se oul</w>
a w</w>
▁s e
ti f
▁c r
▁c re
duc ation</w>
ac t</w>
ec tion</w>
ab lis
▁& q▁u
▁v is
et ing</w>
ow er</w>
el ▁
▁compan ies</w>
rou nd</w>
▁y ears</w>
ev er</w>
u tion</w>
n ot</w>
▁in to</w>
i▁ s
etw een</w>
pl ▁
▁c ar
ti es</w>
▁M inis
▁u se</w>
▁com pl
on d</w>
ec ted</w>
ff ▁
d in
▁ap p
▁p h
▁C omm
t▁ h</w>
▁compan y</w>
▁o ver</w>
s ur
i▁ al</w>
c oun
er y</w>
con om
v is
▁h eld</w>
▁ ot▁;</w>
▁t ake</w>
t ro
&a▁pos; ▁s</w>
s ing</w>
oc i
h a▁
▁wor k</w>
▁pro c
▁c o
▁m ake</w>
m e
o ve</w>
▁v ar
▁re qu
et ro
gh t</w>
ver y</w>
▁b r
r ap
minis tr
in v
▁b l
s ▁u
o l</w>
▁b etween</w>
ch ▁
wh o</w>
▁d o
▁f oll
i e
▁st ar
P rov
▁th ink</w>
m a▁
▁e ach</w>
f er
ut e</w>
h er
▁sch ool</w>
▁an n
e▁ n</w>
▁w ant</w>
s c
o p▁
er g
▁T r
▁ex per
▁i s
iz e</w>
&a▁pos; ▁t</w>
&▁qu o▁t;</w>
▁e st
▁m arket</w>
s ec
▁ap pl
u al</w>
ol ▁
h▁ as</w>
▁g o</w>
y e▁
ot her</w>
ul tur
ecess ary</w>
in d</w>
o▁ ut</w>
▁sup port</w>
f r
1 ▁
▁or der</w>
ud g
▁ev en</w>
▁wh ile</w>
ou ng</w>
▁Y ou</w>
i▁ on</w>
c ed</w>
▁d et
p s</w>
▁in dus
▁b usiness</w>
re g
il ities</w>
re n</w>
rou p</w>
s p
f rom</w>
l i
at▁ ed</w>
en g
▁s ince</w>
▁L ee</w>
▁d ep
y ear</w>
u▁ r
tic le</w>
▁memb ers</w>
e ong</w>
s e▁
b u
ec ts</w>
i▁ ce</w>
u▁ n
o▁ l
t a▁
on▁ al</w>
ati o▁n</w>
d e</w>
▁g et</w>
▁di rec
P ▁
v ir
▁s c
ti me</w>
ak ing</w>
▁f e
▁N ational</w>
as es</w>
i als</w>
t a
▁g o
▁tr ans
▁g ood</w>
▁at ten
▁d on</w>
▁P l
is t</w>
▁H e</w>
▁n ecessary</w>
▁w ell</w>
▁th ree</w>
i ence</w>
it an</w>
e▁ m
▁inv estig
i onal</w>
r ed</w>
▁f am
m in
e ts</w>
▁be ing</w>
wh i▁ch</w>
▁e ar
▁d evelop
tr ic
pl oy
i▁ t</w>
▁s ystem</w>
b e
h is</w>
▁s ome</w>
▁c oll
M ▁
▁U .S.</w>
on▁ g</w>
an ts</w>
ou se</w>
sti tu
w ay</w>
&▁a pos;</w>
id ents</w>
▁J ap
p▁ l
s aid</w>
th is</w>
sib le</w>
u ation</w>
s he</w>
om ▁
▁&a pos;s</w>
ul ▁
▁a m</w>
id ent</w>
pr o▁
▁e t
C ▁
i▁ es</w>
▁pro m
▁m a
▁g re
G yeong
▁o ur</w>
▁an y</w>
etro pol
ac ▁
▁A l
al e</w>
▁Ac cording</w>
p p
▁expec ted</w>
▁per son</w>
am p
▁pl ace</w>
ab ▁
form ation</w>
▁s el
ti o▁n</w>
n am</w>
▁c ould</w>
▁in d
▁) )</w>
tr ib
▁D o</w>
▁P resident</w>
os ec
▁per form
▁ne ed</w>
en s</w>
an▁ ce</w>
oun t</w>
tr ies</w>
m ents</w>
ev ▁
an k</w>
▁w r
or t</w>
▁b el
▁n ext</w>
p o▁s
▁m ov
g u</w>
a fter</w>
s▁ t
d iti
▁1 0</w>
d▁ er</w>
t▁h at</w>
▁Prov ince</w>
▁r em
▁stud ents</w>
Kor e▁
&▁qu ▁ot;</w>
&q▁u o▁t;</w>
▁par ticip
b▁u t</w>
▁m ost</w>
an cial</w>
▁is su
c c
e o</w>
▁est ablis
Th ▁e</w>
o k
us ▁
▁s ur
n ed</w>
o▁ w
▁h ea
l o
▁var ious</w>
▁manag ement</w>
▁ac tiv
▁c ase</w>
▁g u
; t</w>
oin t</w>
▁S h
r i▁
▁e conom
un g
▁pro bl
ur ▁
▁t a
u g
&q▁u ot▁;</w>
▁d uring</w>
▁n ow</w>
▁a ss
iv ing</w>
sh ip</w>
▁con s
▁be fore</w>
emb er</w>
as s</w>
a k</w>
our t</w>
▁O n</w>
Kor ea</w>
▁r a
l i▁
m o▁
oc k</w>
▁E n
A ▁
th er
▁ex c
▁al l
▁u sed</w>
i od</w>
▁d ays</w>
&qu ▁ot▁;</w>
▁c or
y ou</w>
op e</w>
▁are a</w>
e ong
ild ren</w>
▁h el
en t▁
vir on
▁tea m</w>
▁s ame</w>
▁or ganiz
▁h ow</w>
air s</w>
ic y</w>
&a pos;</w>
ch eon</w>
▁Par k</w>
pe ti
en▁ ts</w>
it al</w>
▁Chin a</w>
▁m in
por ts</w>
▁wh at</w>
u b
un d
oc ial</w>
▁a s
▁c er
olog y</w>
f o▁r</w>
e▁s s</w>
▁g u</w>
▁pol ice</w>
▁d e
ay ing</w>
l a▁
&a▁pos; t</w>
b ut</w>
▁&q▁u ot;</w>
r▁ e
h ave</w>
l es</w>
▁at t
▁m illion</w>
i um</w>
e x</w>
s▁ h
a▁ tion</w>
m is
▁e ff
▁A t</w>
ain ing</w>
as ▁
▁cont in
▁S outh</w>
m on
sid er
▁per s
a▁r y</w>
ic s</w>
▁di ffer
l▁ y</w>
▁l ot</w>
t e▁
h▁ is</w>
c ri
o or</w>
y p
K▁ or
f f</w>
l ed</w>
c o
t ain</w>
com e</w>
o b</w>
▁s l
m ed
f ul</w>
su m
G ▁
T ▁
ain ed</w>
d ▁u
▁F or
si ve</w>
▁di ffic
ear ch</w>
is h</w>
▁Minis try</w>
2 ▁
c o▁
c .</w>
▁1 9
ultur al</w>
& apo▁s
ul ture</w>
in▁ ce</w>
U n
▁pro ject</w>
▁Ar ticle</w>
por ted</w>
b een</w>
od ay</w>
▁s it
▁bu il
th a▁t</w>
iv ed</w>
ha▁ ve</w>
in d
&a▁ po▁s
t ors</w>
▁l ong</w>
sel f</w>
▁kn ow</w>
▁g ener
▁m ea
h ing</w>
n▁ ot</w>
▁c urr
d u
&▁qu ot▁;</w>
▁v i
▁o w
&a▁ pos▁;s</w>
ivers ity</w>
rou ▁
▁con f
&a▁pos; m</w>
ci l</w>
▁wor ld</w>
ag rap
▁with out</w>
ar k</w>
overn or</w>
▁a ff
o w▁
is m</w>
▁A m
▁S u
al ity</w>
K or▁
om e
u▁ re</w>
re s▁
r a
▁t ri
s erv
th e▁
o ti
▁C on
m y</w>
▁th ▁e</w>
k ers</w>
D ▁
▁b o
▁me eting</w>
▁Pl ease</w>
▁h er</w>
▁mon th</w>
ow ed</w>
▁s al
e▁ l
s an</w>
us e</w>
ot al</w>
ic k
is ion</w>
▁in formation</w>
▁with in</w>
▁a round</w>
ib er
▁produc ts</w>
ati on
L ▁
▁con cer
▁d em
anc es</w>
n er</w>
y m
art ment</w>
m ed</w>
at t
▁con duc
f i▁
▁ann oun
▁rel ated</w>
ot e</w>
e▁ x
n o▁
a ir</w>
it ing</w>
s h▁
▁pl an</w>
▁f u
▁w ee
ow s</w>
r a▁
▁foll owing</w>
an t
en se</w>
▁C ity</w>
em e▁nt</w>
en tr
om en</w>
w ang
▁sm all</w>
▁e ducation</w>
a e
▁s ee</w>
res s</w>
ac k
▁res pon
▁j ust</w>
af ety</w>
g u
▁serv ice</w>
N ▁
▁l arge</w>
ab or</w>
m it</w>
for m</w>
▁f r
▁fac t</w>
y ung</w>
t▁ y</w>
▁r ight</w>
▁par tic
▁h ous
ai▁ d</w>
ac c
ea s</w>
i or</w>
▁ch ec
all ed</w>
ro w</w>
il it
▁t er
▁d id</w>
s ide</w>
eal th</w>
c o▁n
▁sec ond</w>
th ough</w>
v en</w>
t▁ ion</w>
h▁ er</w>
ent al</w>
ti c</w>
▁c ity</w>
▁o ffice</w>
th ing</w>
▁pr ice</w>
▁pre v
▁o ut
▁g row
l ine</w>
al y
iti z
▁f ood</w>
l e▁
ag es</w>
i an</w>
struc tion</w>
su ng</w>
▁m uch</w>
ust om
▁l ife</w>
a u▁
con ▁
e ign</w>
▁A ss
a p▁
ot h</w>
i▁ d
b u▁
▁“ “</w>
a▁ t
ee p</w>
m e▁
i k
▁Comm ittee</w>
▁h igh
s e
h o▁
at ely</w>
v ing</w>
▁ev ent</w>
iz ation</w>
▁b eg
ul t
il▁ l</w>
ea d
▁res idents</w>
su res</w>
re t
z e</w>
▁incre ase</w>
▁ex pl
h y
ati c</w>
o i</w>
b ▁e</w>
▁pro f
o▁ re
am ▁
di tion</w>
▁per iod</w>
▁indus try</w>
L ee</w>
▁fac ilities</w>
o o▁
▁c ases</w>
v es</w>
▁s ol
ar ds</w>
os p
Kor▁ ea</w>
c t</w>
i re</w>
m▁ an</w>
i g</w>
▁coun try</w>
d u▁
c r
at a</w>
▁t echn
es ted</w>
▁t otal</w>
o▁r t</w>
n▁ d</w>
▁f ri
t▁ r
im es</w>
tr ac
▁t re
▁partic ular</w>
i e</w>
▁Ac t</w>
▁e nd</w>
ar t</w>
▁v ery</w>
▁Th at</w>
▁m us
r din
it▁ h</w>
▁w ay</w>
▁am ong</w>
▁ma j
▁s ti
▁f un
▁spec ial</w>
ec tr
m▁ ent</w>
Kore▁ an</w>
al f</w>
▁u s</w>
ti l</w>
oo m</w>
▁r ate</w>
uc c
▁ch ildren</w>
us an</w>
a▁ ge</w>
▁ex pen
m ak
&a pos;
c us
&a▁ pos▁
ain st</w>
an y</w>
▁H y
▁ad v
b le</w>
o ffic
p ri
▁p op
i▁ l
▁in st
th s</w>
c an</w>
com pan
y o▁
a ff
C omm
en▁ ce</w>
▁A n
ew s</w>
▁o b
0 ,000</w>
pl em
▁ th</w>
▁u n</w>
▁r o
iti ▁
ch ed</w>
j ects</w>
um p</w>
Se oul</w>
▁un der
▁produc t</w>
a▁ m
ac hed</w>
▁f il
in ter
ak es</w>
ep t</w>
d ic
ag ▁
▁r eal
d en</w>
s ch
▁wh ether</w>
▁s ea
og ether</w>
ow ever</w>
w▁ on</w>
i▁ t
un ity</w>
ex ▁
▁b illion</w>
agrap h</w>
f▁ f
p ly</w>
ar m
in cial</w>
ul ts</w>
I n</w>
H ▁
l ob
c ent</w>
▁b as
R W</w>
▁oper ation</w>
▁o cc
pos e</w>
▁th ese</w>
▁Wh at</w>
d i▁ng</w>
▁f ound</w>
ev el</w>
f in
el f
S t
er ▁s</w>
. ▁
▁A fter</w>
▁re v
an ese</w>
th or
▁ch ang
w▁ ill</w>
ati on▁al</w>
▁th ose</w>
▁h ear
▁re port</w>
d r
▁J e
u▁ l
sti t
▁pl ay
c es</w>
a i</w>
d e
▁r et
w ere</w>
o y</w>
▁offic ial</w>
od y</w>
▁proc ess</w>
is ed</w>
m en▁t</w>
f▁ er▁
▁Par ty</w>
n e
s l
er n
u ty</w>
su b
d e▁
▁des ign
ol e</w>
igh ts</w>
ut es</w>
ie f</w>
▁et c.</w>
sa▁ id</w>
re ad
e ir</w>
b▁ y</w>
oc r
w ard</w>
o▁n e</w>
l▁ ed</w>
b▁ er</w>
in es</w>
▁w ater</w>
▁S am
i ev
ac h
t ment</w>
d i▁
ou▁ n
e▁c t</w>
▁t al
▁l oc
▁im port
▁e very</w>
▁e as
en ds</w>
▁develop ment</w>
id ▁
tic s</w>
▁b udg
air man</w>
ur ity</w>
▁g roup</w>
▁am ount</w>
ot h
b ec
▁investig ation</w>
i o▁n</w>
il d</w>
f t
▁inv est
20 1
▁M oon</w>
v ed</w>
d▁ ed</w>
h ib
al so</w>
▁a u
▁E x
K▁ im</w>
o▁ ul</w>
▁th ▁
o c▁
pres ent
▁s k
s m
▁com e</w>
▁c enter</w>
▁u l
s ure</w>
m .</w>
B ▁
be▁ en</w>
▁s ign
a▁ y</w>
▁con sider
enti al</w>
wor k</w>
c o▁m
▁o pen
par ed</w>
oun ▁
▁fin ancial</w>
▁d ef
ou▁ ld</w>
ea sed</w>
▁d oc
▁ n</w>
ef t</w>
▁diffic ult</w>
a▁n t</w>
l o▁
p o▁
▁in tro
▁perform ance</w>
d ep
▁ch ange</w>
▁s us
▁h im</w>
ar ac
A ss
A r
▁H owever</w>
▁pur su
▁ex am
r d</w>
▁u s
eg al</w>
ir ed</w>
▁ch arge</w>
riv ate</w>
c a▁
▁Al though</w>
ev ant</w>
▁fi re</w>
pl o
on t</w>
▁cont ro
if ic
▁U S</w>
▁probl em</w>
o s</w>
ti m
▁i t
c▁ an</w>
▁mat ters</w>
▁h ere</w>
i ver
et ter</w>
▁pr ot
▁bec ome</w>
▁f ul
emb ly</w>
▁in ten
ou ght</w>
an ds</w>
esti v
▁s ocial</w>
▁ag ain</w>
▁b ro
▁h ome</w>
▁a ud
▁s ome
d ec
lob al</w>
▁o ver
esti c</w>
p ing</w>
oun d
▁for mer</w>
▁hel p</w>
iv ▁
g s</w>
▁s ay</w>
ov er</w>
os s</w>
▁G ang
t e▁r
tr ial</w>
▁par t</w>
▁G overnor</w>
d le</w>
▁ad ministr
n s</w>
n ow</w>
en ing</w>
er ▁e</w>
▁b ack</w>
▁M y</w>
▁c ustom
▁en ter
▁P r
▁fam ily</w>
s o▁
▁con struction</w>
du ce</w>
ter m</w>
▁rea son</w>
J ▁
▁wor king</w>
our s</w>
a▁ ng</w>
▁go ing</w>
tric t</w>
▁announ ced</w>
iv es</w>
eh ic
con t
▁prov ide</w>
▁pos sible</w>
▁par ty</w>
w e</w>
▁sh ar
in ation</w>
E n
▁in stitu
▁st at
for m▁
▁com peti
u▁ n</w>
▁par agraph</w>
▁differ ent</w>
ev en</w>
en ted</w>
ig ▁h
ain s</w>
at ure</w>
▁coun tries</w>
e▁ st</w>
▁5 5</w>
p ed</w>
he▁ ad</w>
etropol itan</w>
▁ag re
n ess</w>
si a</w>
▁re ported</w>
ar s</w>
i o</w>
b e▁c
ur al</w>
▁u sing</w>
C ▁h
d ers</w>
▁offic ials</w>
▁Th ey</w>
on ▁s</w>
p a▁
t▁ or</w>
▁s et</w>
i▁ ts</w>
d es
it▁ y</w>
▁sal es</w>
▁pro gr
per ▁
▁m od
▁d om
▁inter n
▁2 0</w>
▁s im
u nd</w>
w o▁r
▁t oday</w>
pro duc
▁compl et
▁n ational</w>
▁d own</w>
n ew</w>
▁d am
▁w at
t e▁d</w>
▁Jap an</w>
w a▁s</w>
▁sit uation</w>
▁sti ll</w>
▁re f
oin ted</w>
▁m ain
ol ice</w>
▁h um
e t▁
wh ich</w>
is ts</w>
th▁ is</w>
w e▁re</w>
v ▁e</w>
ch ing</w>
a z
▁F or</w>
▁C oun
▁C enter</w>
o tion</w>
▁wh y</w>
▁i d
▁S ince</w>
com ▁
▁contin u
ul ation</w>
lis h</w>
▁maj or</w>
▁d ata</w>
n o</w>
ri ed</w>
h i▁
▁inter est</w>
o ol
su p
on y</w>
▁c aus
▁B usan</w>
h av
▁ag ainst</w>
iv id
▁import ant</w>
▁rec or
▁conf ir
▁c ap
pos ed</w>
▁p ower</w>
per son</w>
in clud
▁g ive</w>
overn me▁nt</w>
▁ad dition</w>
m ore</w>
▁mon ey</w>
▁s he</w>
▁en viron
k i▁ng</w>
p e▁
on ed</w>
tr uc
▁rece ived</w>
ti▁ me</w>
su▁ ch</w>
tr act</w>
▁Chin ese</w>
▁rel evant</w>
▁3 0</w>
read y</w>
uc l
f o▁r
duc ed</w>
▁M ar
w e▁
▁P ro
▁mea sures</w>
ye ong</w>
o ff▁
▁are as</w>
▁en tr
▁th en</w>
o▁ us</w>
as ter</w>
▁pr osec
C h▁
wh▁ en</w>
elf are</w>
sib ility</w>
vi ew</w>
ic▁ h</w>
▁s er
ar ▁e</w>
el s</w>
n▁ g</w>
Se o▁ul</w>
at▁ ional</w>
ad ▁
p tion</w>
▁e qu
is ing</w>
▁v al
an ding</w>
s▁ o</w>
i f</w>
▁m ain</w>
▁incre ased</w>
rdin ance</w>
▁p ay</w>
f▁ or
▁per cent</w>
▁fu ture</w>
▁com p
h ead</w>
▁un til</w>
▁an aly
am es</w>
af t▁er</w>
▁r oom</w>
ffic i
at▁ e</w>
b r
▁p ay
▁memb er</w>
itiz ens</w>
e ed</w>
a il</w>
▁Sam sung</w>
▁for eign</w>
c al</w>
i x</w>
▁chec k</w>
▁l ear
a p</w>
▁h ope</w>
re qu
or k</w>
▁em ploy
n e▁
▁t oo</w>
ur n</w>
im ▁
▁f our</w>
▁f ive</w>
p e</w>
y▁ ou</w>
H y
▁res ult</w>
▁p rivate</w>
▁att ached</w>
▁c ame</w>
▁b ased</w>
▁t imes</w>
▁dep artment</w>
tr o▁
on om
▁t ogether</w>
f ir▁
th▁ ey</w>
▁Wh ere</w>
▁ne ed
▁h ol
es ts</w>
▁s en
in dus
▁b re
▁Tr ump</w>
ilit ary</w>
ec u
▁ab le</w>
ep ar
a in▁
▁econom ic</w>
ver y
estiv al</w>
▁b est</w>
a▁ g
w il▁l</w>
▁in c
h a▁s</w>
t wo</w>
▁w in
▁dec ided</w>
. m.</w>
in al</w>
m it
▁pursu ant</w>
ea m</w>
or ganiz
▁l im
▁t em
ti ce</w>
▁Jap anese</w>
▁J ae</w>
W e</w>
i▁n e</w>
i▁ g
is sion</w>
ir d</w>
l ike</w>
▁budg et</w>
▁det er
▁ ts</w>
tu res</w>
eg ▁
▁w omen</w>
in a</w>
s ai▁d</w>
▁In tern
▁l oo
▁im prov
wh▁ o</w>
1 9
▁do es</w>
▁res ults</w>
a▁n y</w>
r ic
i al
▁ear ly</w>
R ▁
a th
t o▁
▁ta x</w>
▁in spec
▁exper ience</w>
0 th</w>
id n</w>
il i
▁m ust</w>
w ays</w>
c as
▁vis it</w>
▁w ea
iti ▁es</w>
▁&a pos;</w>
▁n eg
▁Un iversity</w>
s p▁
▁En g
ye es</w>
p▁ er
c▁ l
▁h alf</w>
K o▁re
▁activ ities</w>
s▁ ed</w>
▁p ic
▁b ea
▁gener al</w>
id dle</w>
g r▁
as ing</w>
F ▁
▁O n
▁med ia</w>
u p
v i▁
ay ▁
a▁ r</w>
▁w ar
▁l eft</w>
▁t ook</w>
I t</w>
▁c ulture</w>
s▁ t</w>
a▁ s
a un
▁su m
un ic
▁l o
p▁os ;s</w>
l ast</w>
y s</w>
▁n o
a▁ d
▁p ast</w>
un▁ g</w>
s y
pr e▁
p a▁r
▁J ung</w>
us ed</w>
or▁ th</w>
▁pl ans</w>
▁co oper
el ec
1 0</w>
ic ial</w>
pos ition</w>
ann ot</w>
em ocr
as te</w>
u▁ ng</w>
▁H ow</w>
man ag
f am
▁op in
for ▁
st ud
di rec
th▁ an</w>
the▁ ir</w>
▁p aid</w>
ib le</w>
▁y oung</w>
▁s afety</w>
al▁ so</w>
ea s
▁G wang
▁h ard</w>
E O</w>
t or
▁atten tion</w>
▁re al</w>
en ter
op▁ le</w>
is tr
▁tr ad
sh a▁ll</w>
▁gre at</w>
▁w ent</w>
▁l evel</w>
ac tiv
▁u r
▁s end</w>
▁fin d</w>
am s</w>
▁c ol
m at
d en
ay or</w>
▁st and
yo▁ u</w>
l▁ d</w>
▁l ow</w>
▁g ame</w>
▁O rdinance</w>
t▁ ry</w>
▁pl ease</w>
t e
▁h ouse</w>
ub l▁
d el
e▁ t</w>
l s</w>
▁en j
u res</w>
▁wee k</w>
▁sur v
al▁ l</w>
at ten
▁s ite</w>
ear ▁
▁st or
p e▁r
▁c ar</w>
▁expen ses</w>
C on
ool s</w>
▁m ar
▁comm ittee</w>
pr▁ o
▁j ob</w>
is h
s▁ on</w>
▁c iv
2 0</w>
▁s ucc
▁o ff</w>
at eg
▁pur pose</w>
s▁ aid</w>
in after</w>
at or</w>
ab▁ le</w>
d ong</w>
t re
▁l aw
y u</w>
▁dom estic</w>
no▁ t</w>
▁ph ot
ati▁ ve</w>
g o</w>
▁buil ding</w>
id es</w>
iz ▁ed</w>
▁m aking</w>
ir c
▁fe el</w>
▁t our
▁v ehic
▁& ▁
and id
is si
e duc
ro▁ m</w>
f o▁
ex pec
▁vi ol
ti s
ati o▁ns</w>
0 s</w>
▁E ven</w>
▁mat er
is ting</w>
▁r ul
▁requ est</w>
stit ute</w>
si an</w>
ac es</w>
ye▁ ar</w>
pos▁ ;</w>
i e▁s</w>
et t
u le</w>
com p
b ed</w>
▁wor kers</w>
▁K RW</w>
ie ve</w>
e a▁r
a ther</w>
ch ange</w>
man y</w>
▁on ce</w>
z ed</w>
d▁ ing</w>
l▁ l</w>
er ing</w>
plo yees</w>
▁pur ch
▁m or
ch ool</w>
h igh</w>
▁v ol
▁ gi</w>
▁techn ology</w>
er e
▁au thor
p ur
es t▁
b o
p ▁u
&a pos▁;s</w>
5 th</w>
fir▁ st</w>
inc ▁e</w>
▁c ou
▁pol icy</w>
enc es</w>
f i
▁se ems</w>
▁h ours</w>
rou▁ gh</w>
▁issu e</w>
▁ch arac
f ri
▁D a
g over
▁N ew</w>
e▁ ly</w>
▁sub sid
▁pro jects</w>
▁v id
P ark</w>
▁t yp
▁Minis ter</w>
ou ▁t</w>
▁E l
com pl
in s
▁ev al
▁prov ince</w>
T r
c y</w>
Kor ean</w>
c▁ on
▁l abor</w>
▁20 0
▁rece ive</w>
c t
b as
3 ▁
i qu
p▁ ro
w▁ ith</w>
sur ance</w>
ous ly</w>
s w
oo ds</w>
y o</w>
mo▁ re</w>
▁s w
ti c▁
▁b ur
l ess</w>
es si
h n</w>
&apo▁s ;s</w>
▁l ik
7 th</w>
p ea
▁c os
8 th</w>
▁p as
▁em erg
▁al ready</w>
th▁ er</w>
▁p ut</w>
au▁ se</w>
ectr on
▁h ist
▁S ec
p er</w>
▁pay ment</w>
og n
g g
▁F in
oci ety</w>
▁app ly</w>
▁sh ow</w>
▁pres cri
▁a ut
▁E ducation</w>
n ov
▁curr ent</w>
iv en</w>
erg y</w>
▁S erv
▁u e</w>
in ed</w>
w it▁h</w>
l ing</w>
▁n ame</w>
tic al</w>
o ff
▁aff airs</w>
l and</w>
y e</w>
▁s ing
ig▁h t</w>
▁W or
▁l ook</w>
amp ;</w>
tu al</w>
d▁ s</w>
m ea
o▁w n</w>
G u</w>
▁wh ▁
ar i
▁g ot</w>
S h
▁C om
l d
▁c annot</w>
tr ans
in cre
os ▁
fr as
a▁n s</w>
all s</w>
▁f oc
▁c our
▁appl ication</w>
ess es</w>
bl ic</w>
c▁ ed</w>
G ov▁
▁ow n</w>
▁& apo▁s
▁dis cus
4 th</w>
oci ation</w>
▁d ate</w>
g y</w>
ubl▁ ic</w>
ig h▁
▁fr ont</w>
▁in t
u ally</w>
▁ex pan
▁A d
g et</w>
l ea
an ks</w>
▁pr ices</w>
ou▁ r
h ad</w>
air person</w>
e ed
Gyeong ▁gi</w>
▁star t</w>
P ro
al▁ ly</w>
&a▁pos▁ ;t</w>
ch ang
▁b ody</w>
▁res earch</w>
▁me ans</w>
▁c ultural</w>
re c▁
c▁ h</w>
w ang</w>
G ang
▁su per
▁ex pres
▁mon ths</w>
g er</w>
t e▁r</w>
in cl
▁h ealth</w>
ent ary</w>
. 5</w>
es s▁
▁W ith</w>
itt le</w>
pro ve</w>
med i
E ▁
▁a f
▁l aw</w>
k er</w>
▁re present
▁h app
d▁u e</w>
un e</w>
n i▁ng</w>
▁med ical</w>
0 ▁
th ey</w>
osp ital</w>
y ang</w>
iv er</w>
▁grow th</w>
▁C ourt</w>
a▁r d</w>
▁a v
th an</w>
or row</w>
em ony</w>
K▁or ean</w>
A ct</w>
en t▁s</w>
en ef
▁mus ic</w>
▁b oth</w>
▁tr av
3 0</w>
▁f ree</w>
is es</w>
bu▁ t</w>
M e
▁pl an
▁im plem
c tion</w>
▁I s</w>
g re
1 st</w>
o▁r s</w>
ati s
▁ac cording</w>
▁p er</w>
i ally</w>
▁invest ment</w>
▁c are</w>
er c
▁sch ed
u▁ s
▁p oint</w>
M in▁
▁str ong</w>
▁Eng lish</w>
N or▁th</w>
▁g lobal</w>
em or
▁conduc ted</w>
▁m ilitary</w>
trib u
ep t
▁S o</w>
h▁ ead</w>
▁ f</w>
P ar
▁m is
▁s aying</w>
▁gr ad
es ter
▁B ut</w>
er al</w>
▁v ic
▁c ost</w>
▁rec omm
▁l et</w>
ta ur
M etropol
▁D ec
▁C an</w>
▁rel eased</w>
w ith
▁l ess</w>
▁str eng
e ff
▁ful l</w>
it▁ an</w>
ai▁ r
ar d
u fac
o ice</w>
▁me th
s ol
m ark
m or
g o▁
M inis
20 ▁
ret ary</w>
▁under st
her e▁
l ▁e</w>
per s
e on
5 0</w>
▁cor por
6 th</w>
▁prov incial</w>
en e</w>
▁p ass
▁cl os
▁p ri
as h
▁ex p
▁et c</w>
i▁ le</w>
ati▁ ng</w>
▁b ig</w>
f▁er▁ red</w>
ic t</w>
▁d iv
her e
d▁ o</w>
b usin
S u
r▁ es
d ance</w>
ti o▁ns</w>
n ers</w>
duc tion</w>
ul ar
om s</w>
j in</w>
▁ta x
ft en</w>
▁R es
ti onal</w>
ov▁ er</w>
▁o ld</w>
ang u
▁Th en</w>
▁l ive</w>
ak en</w>
C om
▁op en</w>
▁econom y</w>
ex p
▁prosec ution</w>
▁c itizens</w>
▁th ings</w>
c ar
ail s</w>
▁s ide</w>
&ap▁os ;s</w>
on es</w>
ic i
m ost</w>
an ag
c ement</w>
a im
pro c
▁d idn</w>
▁pol iti
pro m
o▁ p
bu k</w>
▁l iving</w>
h o</w>
at ment</w>
▁st ate</w>
▁con c
▁D is
▁In cheon</w>
ab ility</w>
ym p
im um</w>
here▁ inafter</w>
▁t ▁
▁m ark
a▁l s</w>
▁i ll
er ed</w>
Prov in▁ce</w>
r▁e f▁er▁red</w>
w an</w>
hav ▁e</w>
ch er</w>
▁s epar
▁c ourt</w>
o▁ re</w>
ot s</w>
ail ed</w>
▁h and
▁serv ices</w>
re v
o▁n g
or m
n el</w>
g▁ u</w>
a▁ b
▁t op</w>
▁Coun cil</w>
ye▁ ong
et ting</w>
in t
&ap▁os ▁
▁O ffice</w>
&a▁pos; ▁
▁em ployees</w>
ay ed</w>
it t▁
ic ▁e</w>
▁c alled</w>
s uch</w>
k n
fer red</w>
▁pro per
pl a▁
O ▁
▁t est</w>
▁Ass embly</w>
c▁ al</w>
w ar
▁P olice</w>
▁me et</w>
u ly</w>
▁environ ment</w>
c l▁
▁u p
▁agre ement</w>
▁M ay</w>
m emb
u ro
ob s</w>
pro f
o▁r y</w>
oc k
▁F r
em ents</w>
▁Un ited</w>
eh ol
▁particip ate</w>
▁ al</w>
▁g overn
er ic
▁&a pos;
▁l ove</w>
▁prov ided</w>
▁star ted</w>
entr al</w>
p are</w>
e es</w>
▁a way</w>
p o▁r
▁Y es</w>
at ory</w>
al k</w>
w or▁
i▁ m
▁p en
▁ag ency</w>
▁G overnment</w>
▁M etropolitan</w>
ill s</w>
g o
m a
▁H an
▁l ed</w>
▁Wh ile</w>
i▁ ll
ill age</w>
▁c anc
▁hum an</w>
i▁c t</w>
f ul
▁establis hed</w>
anc ▁e</w>
T▁ he</w>
; ▁s</w>
an▁ g</w>
e▁ on</w>
y n
▁m an</w>
▁ex hib
ther n</w>
t ain
ci es</w>
s it
▁produc tion</w>
ob ile</w>
p▁ or
▁acc ident</w>
d et
en t▁er</w>
▁c ri
la▁ st</w>
ur ch</w>
b o▁
▁fi eld</w>
▁lik ely</w>
▁an other</w>
u b</w>
iz ing</w>
d r▁
a▁n ce</w>
▁ad diti
b an</w>
▁mov ie</w>
▁acc oun
ul ations</w>
um ents</w>
▁1 5</w>
ur i▁ng</w>
in ess</w>
ess ion</w>
ag ed</w>
▁b ook</w>
eg e</w>
; m</w>
pre me</w>
em ed</w>
▁a n▁d</w>
d▁ ay</w>
c oll
e um</w>
d evelop
pp o▁rt</w>
is hed</w>
r is
iti onal</w>
con s
d y</w>
a ud
▁s oon</w>
w▁h ich</w>
th eir</w>
▁tr aining</w>
▁tr ade</w>
▁a ▁s</w>
par ▁
p o</w>
ex per
▁direc tor</w>
h ous
o▁ on</w>
fras truc
f irst</w>
▁con tract</w>
f er</w>
▁vid eo</w>
▁kn own</w>
▁o ften</w>
pri l</w>
▁1 00</w>
▁s ent</w>
r▁ ec
L▁ ee</w>
ti l
▁con diti
▁e very
e qu
▁sel ected</w>
ess or</w>
▁pers ons</w>
j ec
▁dem and</w>
oc c
ea t</w>
d evel
▁ch ild</w>
m ing</w>
▁stud y</w>
p t</w>
f oll
▁sub ject</w>
t ory</w>
ex c
i et
▁p ubl
▁H ong</w>
▁f ine</w>
▁administr ative</w>
re am</w>
▁t aking</w>
he▁ ld</w>
▁as ked</w>
l ocal</w>
▁D ep
n▁ ed</w>
▁bec ame</w>
▁pl ay</w>
ch es</w>
th em</w>
all ing</w>
i on
eal ed</w>
W ▁
h ▁e</w>
▁del iber
P a▁r
t echn
c▁ om
▁Ch airman</w>
▁b etter</w>
▁f ir
ec ause</w>
▁probl ems</w>
▁con sum
mis sion</w>
id ing</w>
▁cl ass</w>
h▁ ad</w>
y our</w>
G ye▁ong
▁l aun
re f
▁w a
id ence</w>
▁a par
i▁ c</w>
ip ment</w>
s▁u ch</w>
▁A n</w>
▁prev ent</w>
▁pop ular</w>
▁cre ate</w>
th r▁
ad v
&a▁po▁s ;s</w>
▁competi tion</w>
urr ed</w>
si▁ on</w>
am a</w>
▁rec ently</w>
▁Je ju</w>
or por
n a▁
▁S ome</w>
ic ies</w>
ar ding</w>
E x
in ten
on▁ g
om orrow</w>
▁fl oor</w>
ot ing</w>
h▁ ave</w>
ill i▁on</w>
▁dam age</w>
▁c ause</w>
ver age</w>
ch ers</w>
inv estig
em b▁er</w>
ail y</w>
h▁ ed</w>
▁@ -▁@</w>
▁par ents</w>
ill ed</w>
ed ly</w>
▁pr ac
▁pr in
▁beg an</w>
▁al ways</w>
l im
mit ted</w>
▁or ig
c i▁
ent ation</w>
g ency</w>
g ed</w>
▁me an
▁a ir
▁Ch oi</w>
e▁n ts</w>
at ors</w>
▁in come</w>
an k
c r▁
J ap
▁mor ning</w>
em ploy
e p</w>
▁st ock</w>
▁con ven
▁n ight</w>
▁sch ools</w>
p eople</w>
▁open ing</w>
▁n ew
r .</w>
d em
▁h old</w>
▁al ong</w>
es ▁s</w>
b or
▁l ate</w>
ot h▁er</w>
▁loc ated</w>
ye on</w>
p o▁l
e▁r y</w>
▁sp ace</w>
▁sel f</w>
en ess</w>
▁organiz ations</w>
▁p ati
N ation▁al</w>
J ae</w>
&apos; ▁s</w>
v y</w>
ic▁ al</w>
ot el</w>
n▁ ew</w>
▁min utes</w>
▁p resident</w>
▁ex ecu
p op
▁confir med</w>
▁caus ed</w>
as t
ld n</w>
▁th ought</w>
▁Serv ice</w>
m ov
▁5 0</w>
▁cer emony</w>
resid e▁nt</w>
▁t ell</w>
c are</w>
▁R ep
ac y</w>
e▁ e</w>
▁ y</w>
▁m iddle</w>
par ticip
▁t ur
ar▁ y</w>
▁b oo
it al
i rec
▁progr am</w>
j ur
fer ence</w>
▁th ird</w>
▁res taur
J e
res pon
w ell</w>
p ic
Y ▁
on al
a▁r s</w>
▁p at
eg r
tro▁ pol
▁wh i▁ch</w>
u▁ m
s en
▁ind ivid
▁l ine</w>
id ay</w>
▁o th
▁tre atment</w>
f t</w>
o o▁n</w>
i▁ ll</w>
rel at▁ed</w>
ow n
▁cer tif
▁lea st</w>
Metropol it▁an</w>
S ec
▁des ign</w>
includ i▁ng</w>
▁contin ue</w>
as h</w>
wh en</w>
i▁ n▁g</w>
an ted</w>
▁im prove</w>
▁In dus
r e▁d</w>
▁con n
s us
ati v
ap e</w>
▁pre pare</w>
wh e▁re</w>
g est</w>
e▁ nd</w>
P res▁
▁M ayor</w>
▁intern ational</w>
▁c ard</w>
ap pl
▁n at
l ar
▁in fl
P ar▁
▁l arg
▁1 2</w>
S▁ e
▁institu tions</w>
o g▁
e▁ en</w>
▁s pre
▁l ittle</w>
if ication</w>
▁re fl
▁r is
ou t
o es</w>
iti ve</w>
ch air
e▁ v
A d
p ubl▁ic</w>
oin ts</w>
e ans</w>
▁sh ort</w>
n ext</w>
vers eas</w>
▁d ri
s is</w>
▁ter m</w>
▁a ge</w>
ea ch</w>
g ue</w>
em▁ ent</w>
iti▁ on</w>
cl es</w>
▁no tif
ib r
▁chang ed</w>
▁a ir</w>
ex p▁
▁qu ality</w>
▁bu y</w>
qu ▁
o i▁n
▁inspec tion</w>
ou▁ nd</w>
▁additi onal</w>
cl os
▁v er
▁T o</w>
▁” ”</w>
tur al</w>
g en
s ite</w>
t▁ e</w>
ap er</w>
▁st ore</w>
con f
▁exper ts</w>
ufac tur
▁l and</w>
an u
ad em
v ice</w>
f ied</w>
pl ace</w>
pl ac
▁f ar</w>
▁&q▁u ot▁;</w>
▁b us</w>
▁s cre
▁1 1</w>
ter ed</w>
in king</w>
ea th</w>
pe op▁le</w>
S e▁
▁sec urity</w>
▁in surance</w>
▁S he</w>
▁w elfare</w>
▁expl ained</w>
▁1 0
re l▁
d it</w>
our ces</w>
s ons</w>
▁appl ied</w>
if ied</w>
▁res ol
▁pre dic
▁D ong</w>
▁b enef
ic k</w>
ver al</w>
e k</w>
▁l ater</w>
▁an y
▁h ar
▁ch arg
dis ▁
▁g iven</w>
it er
ab o▁ut</w>
u k</w>
h eld</w>
▁Mar ch</w>
th rou▁gh</w>
a▁ tio▁n</w>
▁c irc
ov e▁r
au gh
rec e
w o▁n</w>
ti▁ ve</w>
▁k eep</w>
▁vis ited</w>
ig ▁
ci ence</w>
Gyeong gi</w>
ap p▁
▁fe es</w>
m os
▁b or
▁enj oy</w>
itt en</w>
af e</w>
Me tro▁pol
c ▁e</w>
▁comm unity</w>
pl ▁e</w>
▁s em
▁val ue</w>
▁For m</w>
th en</w>
▁play ers</w>
▁rec ogn
tiv ely</w>
per form
▁hist ory</w>
d ef
a▁ ti▁on</w>
U .S.</w>
▁st age</w>
▁o ff
▁prev ious</w>
▁direc tly</w>
▁ap prov
e e▁
e y
der g
▁ex isting</w>
▁B ecause</w>
N orth</w>
ag ▁e</w>
▁d ev
▁J ong</w>
pen s
▁real ly</w>
▁bas ic</w>
ip s</w>
ee k</w>
▁pers on
▁organiz ation</w>
▁sh owed</w>
▁n on</w>
▁op port
▁s o
af f</w>
p▁ ar
▁Wor ld</w>
ug g
▁ 00</w>
is ter</w>
▁ha ving</w>
cont in
C ity</w>
e ep
n am
▁1 1
▁fri ends</w>
t▁ wo</w>
▁T a
▁ o▁t;</w>
▁Gwang ju</w>
th e▁re</w>
▁n ews</w>
e▁ ss
▁St ates</w>
st▁ em</w>
▁j udg
▁n ear</w>
in ary</w>
c le</w>
art ers</w>
e▁ a</w>
▁deter min
i er</w>
▁mater ials</w>
ro ad</w>
ound ation</w>
e ti
▁c andid
d own</w>
c▁ es</w>
▁fun ds</w>
▁f ace</w>
▁complet ed</w>
ear ed</w>
▁Prov ided</w>
▁t aken</w>
▁d eb
▁fin al</w>
or ts</w>
aff ic</w>
ministr ation</w>
il ar</w>
en cies</w>
a▁ p
G overnme▁nt</w>
▁wor ks</w>
om an</w>
▁ac cor
y ou▁
▁at trac
i▁ m</w>
ati ves</w>
e▁n ce</w>
on▁ ly</w>
el t</w>
▁bro ad
▁th ough</w>
▁fac ility</w>
▁employ ment</w>
i▁ ed</w>
▁custom ers</w>
angu age</w>
▁high er</w>
j e▁ct</w>
ec ting</w>
con c
Gye▁ong gi</w>
▁conditi ons</w>
a▁ ir
▁Am eric
▁sup ply</w>
▁h om
or ity</w>
▁m ove</w>
ti t
ou r▁
c s</w>
▁s ociety</w>
es ▁t</w>
rou ps</w>
▁Am ong</w>
▁G roup</w>
em ale</w>
▁L et</w>
▁ro ad</w>
P ro▁
ob er</w>
eg u</w>
▁sea son</w>
▁ap pro
▁en g
▁a ch
or din
a▁ se</w>
▁ev ents</w>
▁civ il</w>
u▁ d
o▁ ol</w>
▁f ea
i b▁
▁f ans</w>
ti al</w>
▁re p
▁n ot
▁for m</w>
▁o verseas</w>
ann oun
▁oth ers</w>
▁fri end</w>
▁surv ey</w>
lo c▁al</w>
▁l ead</w>
ucl ear
▁R us
re▁ s
▁th a▁t</w>
vers y</w>
▁contro l</w>
▁pre par
es ting</w>
e an
c our
us tice</w>
G ye
t▁ ing</w>
p port</w>
&▁a pos;s</w>
▁s ize</w>
▁bec om
▁D emocr
▁j oint</w>
▁ex change</w>
▁m akes</w>
▁c all</w>
▁reg ion</w>
n eg
li er</w>
▁F irst</w>
on ly</w>
▁In stitute</w>
▁n ever</w>
K▁or ea</w>
der ed</w>
b ro
▁s ix</w>
si ons</w>
&ap▁os; l▁l</w>
d o▁
▁prom ote</w>
y ears</w>
&a▁ p▁os;s</w>
a▁ n▁d</w>
▁k in
ex ual</w>
▁On e</w>
ear ly</w>
▁dec re
▁d u
un d▁er</w>
el ing</w>
▁establis h</w>
e er</w>
pre h
o▁ me</w>
il ies</w>
▁cour se</w>
in t▁
itt▁ ee</w>
Gov▁ ern
y s
▁trad itional</w>
▁p ointed</w>
▁ex ten
a▁n g
▁f ur
▁g o▁
▁ag o</w>
anc ed</w>
o h</w>
▁eff ect</w>
es n</w>
w a</w>
▁a verage</w>
t on</w>
on ▁e</w>
h ment</w>
c o</w>
▁A b
▁particip ated</w>
ud e</w>
ec h</w>
▁cos ts</w>
ab out</w>
▁ ation</w>
▁vic ti
por ting</w>
olog ical</w>
J ung</w>
ec tive</w>
▁ph one</w>
▁Comm ission</w>
us ing</w>
▁sh are</w>
t ak
▁th em
▁incre asing</w>
▁c al
it▁ ed</w>
▁sub mit</w>
▁activ ely</w>
er n</w>
▁it ems</w>
▁b usin
port ation</w>
co oper
▁tr y</w>
p u▁
M oon</w>
▁dr aw
▁Ch o</w>
trib ution</w>
t in▁g</w>
▁hous ing</w>
▁o ▁f</w>
▁offic er</w>
▁eval uation</w>
en ding</w>
m ar
▁eas y</w>
ar▁ ge</w>
▁stud ent</w>
incl ▁u
▁Intern ational</w>
▁ra ised</w>
▁ret urn</w>
&▁ apo▁s
und ai</w>
at e▁d</w>
▁appl ic
▁r ights</w>
ea k</w>
▁E m
en ed</w>
▁atten ded</w>
in▁ to</w>
▁com pared</w>
▁dec ision</w>
w it
th y</w>
▁d eg
i▁ ve</w>
e f</w>
c ap
N at▁ional</w>
▁&qu ▁ot▁;</w>
f ▁u
▁pos sibility</w>
▁vol un
gover ▁n
▁sign ific
▁doc uments</w>
ul a</w>
u▁ st</w>
ul d</w>
U .▁
d ent</w>
a▁c k</w>
w ▁e</w>
b ur
m ental</w>
er ation</w>
frastruc ture</w>
it ors</w>
i ety</w>
▁accor dance</w>
▁St ation</w>
▁G er
2 nd</w>
▁wor ds</w>
▁oper ating</w>
▁h ospital</w>
▁cooper ation</w>
▁s pe
x ed</w>
form▁ er</w>
g ood</w>
for t
a ther
▁E uro
u▁ p</w>
▁some thing</w>
wh ere</w>
re f▁er▁
us tr
R es
▁conduc t</w>
▁A pril</w>
f e</w>
uc ▁
ep end
t ee</w>
▁Ass ociation</w>
ref▁er▁ re▁d</w>
▁qu esti
e ung</w>
▁R eg
I ▁
u ment</w>
r an
f a▁
un ication</w>
ea ce</w>
I n▁
ven tion</w>
n um
com p▁
t al
here in▁
▁lea ve</w>
s▁ ec
▁neg oti
if t</w>
ept ember</w>
a g</w>
▁e r
▁w ar</w>
▁ar t</w>
wor k
el eb
▁e at</w>
▁acc ount</w>
▁tem per
o▁ u
▁trav el</w>
▁H ouse</w>
pr osec
b all</w>
▁represent ative</w>
is is</w>
b▁ l
▁i ▁s</w>
ma▁ de</w>
C oun
O r
20▁ 1
▁K ang</w>
▁rul ing</w>
enc ▁e</w>
Metro▁pol itan</w>
t eam</w>
D is
an▁ t</w>
▁s een</w>
w▁ ay</w>
u tif
▁Y oung</w>
j o▁
▁ar res
▁J une</w>
o▁ se</w>
▁f ew</w>
er▁ al</w>
Kore▁ a</w>
▁d en
a▁c t</w>
ud ▁
▁r ole</w>
▁g en
▁author ities</w>
en ded</w>
▁N o</w>
▁hear d</w>
ye a▁r</w>
▁tr illion</w>
f u
▁r un
g a▁
3 rd</w>
oun ds</w>
ag n
is hing</w>
b ers</w>
ectron ics</w>
▁plan ning</w>
t u▁re</w>
en▁ cy</w>
▁J uly</w>
▁for m
▁p ain
oun tain</w>
ol o▁
▁r un</w>
op s</w>
cl us
a i▁n
mon th</w>
re et</w>
▁im medi
in to</w>
▁B l
us ted</w>
if ic</w>
f un
▁e ffici
il▁ l
▁re view</w>
pl es</w>
o .</w>
ea▁ r</w>
j ust</w>
▁as k</w>
ef ul</w>
g▁ et</w>
ev▁ en</w>
l ife</w>
u k
▁emerg ency</w>
▁diffic ul
s▁ he</w>
▁S chool</w>
ct ober</w>
pos al</w>
gr ic
est ablis
pec t</w>
p▁ e
e▁ m</w>
e el</w>
▁d ust</w>
f il
em p
▁rec ent</w>
l oc
s ome</w>
b re
ti on
p at
herein▁ after</w>
▁&a pos▁;s</w>
U.▁ S.</w>
d ro
l aw
▁out side</w>
▁adv ance</w>
riv ing</w>
c ul
y▁ ear</w>
▁prom otion</w>
m a▁r
es tion</w>
▁pos ition</w>
te▁r m</w>
g overn
i j
▁exhib ition</w>
a▁ e</w>
▁bel ieve</w>
▁i ▁n</w>
▁grow ing</w>
▁u su
▁need ed</w>
i▁ r
▁str uc
ro om</w>
an▁ g
P r▁
a▁ use</w>
d on
▁l ower</w>
▁b ir
▁sh ows</w>
ec on
du▁ c
▁purch ase</w>
ad s</w>
ou▁ l</w>
▁reg ular</w>
▁el ection</w>
▁cl ose</w>
▁1 st</w>
l ow</w>
ell ing</w>
▁ra ther</w>
▁Fin ancial</w>
v al
. 2</w>
▁d aily</w>
▁inv ol
og rap
▁M any</w>
ick ly</w>
e▁ t
▁c ities</w>
▁Hy undai</w>
▁pre pared</w>
▁p us
un der
e un</w>
▁4 0</w>
op ping</w>
d ays</w>
ail able</w>
▁Pr ime</w>
compan i▁es</w>
anu ary</w>
▁D ong
▁sec tor</w>
iqu e</w>
E l
str ▁
f ro▁m</w>
▁curr ently</w>
ug ust</w>
ff airs</w>
enc ed</w>
▁t omorrow</w>
ed ge</w>
eb ru
▁dis ab
n▁ or</w>
fac il
▁sm o
▁includ e</w>
i▁n ce</w>
av or
▁r ise</w>
s k
▁d ro
▁j obs</w>
▁&apos; ▁s</w>
▁op position</w>
u▁ al</w>
ev▁ el</w>
g ener
ar ter</w>
. 3</w>
s▁ es</w>
A r▁
ou▁ th</w>
en ti▁
o▁ uld</w>
b▁ e
p ublic</w>
▁w age</w>
in▁ gs</w>
▁meth od</w>
l ong</w>
g▁ h</w>
f e▁
b us
▁st ory</w>
▁s old</w>
▁s h▁
n▁ ow</w>
spec ially</w>
u▁ te</w>
A n
▁bel iev
ar ant
▁tri al</w>
n er
▁en ti
▁develop ed</w>
s er
i o▁ns</w>
or ry</w>
▁spec ial
P r
▁re vis
p ite</w>
m ade</w>
e▁ ment</w>
G wang
▁pol icies</w>
s y</w>
pan ts</w>
▁politi cal</w>
d ue</w>
▁need s</w>
t▁ ime</w>
o ot
▁im p
pan y</w>
▁c am
ot t
et ary</w>
st ar
op er▁
is su
in st
▁l eg
t▁ ;</w>
i very</w>
▁L and</w>
qu arters</w>
re as
▁se veral</w>
at s</w>
con ven
▁intro duced</w>
▁happ y</w>
▁prof essi
▁man ufactur
in s</w>
▁vehic le</w>
▁ad ded</w>
t w
b er
▁el ec
▁s t▁
▁wr itten</w>
▁g roups</w>
at▁ ic</w>
▁Su preme</w>
re m
pl ay</w>
h ea
sti m
etw e▁en</w>
en d▁
au ght</w>
▁indus trial</w>
▁m inis
▁id enti
▁respon se</w>
m arket</w>
ti▁ ons</w>
▁f estival</w>
▁cl ass
▁1 2
▁l anguage</w>
▁deliber ation</w>
Ch ina</w>
▁opin ions</w>
i▁s h</w>
▁equ ipment</w>
ow l
h ol
▁t▁ o</w>
▁m en</w>
e▁n t
▁aud it</w>
th ere</w>
h s</w>
▁med ium</w>
▁Democr atic</w>
c urr
ab il
▁Ch ung
. 6</w>
▁p oints</w>
▁f arm
us ▁ed</w>
Pa▁r k</w>
▁l egal</w>
pl ay
▁cre ated</w>
ester day</w>
▁l ost</w>
s ucc
. 1</w>
▁chang es</w>
▁loo king</w>
ent ers</w>
pre s▁
in ning</w>
▁cont ents</w>
ad ing</w>
p▁u blic</w>
l iv
g overnme▁nt</w>
as tic</w>
▁en ough</w>
▁A nd</w>
an▁ y</w>
j ong</w>
an tly</w>
▁us ers</w>
▁k ind</w>
ultur ▁al</w>
▁reg ulations</w>
e▁ ty</w>
▁cl ear</w>
a▁ le</w>
ar m</w>
▁f inis
▁oper ate</w>
h el
ann ed</w>
▁sim ilar</w>
▁pl aces</w>
ol l▁
▁e duc
▁stat us</w>
▁design ated</w>
u▁ se</w>
▁rev ealed</w>
▁en ergy</w>
tr a</w>
▁o il</w>
i f▁
e al</w>
s ang
ch e
E duc
Min▁ is▁
&apo▁s ;</w>
▁t arg
▁opin ion</w>
tern oon</w>
▁pas sed</w>
pr ot
at▁ es</w>
▁pres ent</w>
▁su gg
e d▁
di ffic
▁j oin
p▁ r
w r
▁establis hment</w>
▁I sl
mos ph
&a▁ pos;</w>
▁k ey</w>
od e</w>
▁nat ural</w>
for cement</w>
▁B ank</w>
▁par ties</w>
▁Tr ade</w>
par tic
av ▁
▁t akes</w>
▁issu es</w>
g round</w>
ic ate</w>
m ay</w>
iv ely</w>
&a▁po▁s ;t</w>
ag re
▁open ed</w>
▁buil t</w>
su ppo▁rt</w>
i ent</w>
al l▁
▁O r
a em
▁phot o</w>
▁s even</w>
▁par ts</w>
▁Sh in</w>
o▁ t▁;</w>
▁m et
tu ally</w>
▁m om
▁en ter</w>
l▁ ike</w>
▁pic ture</w>
▁h y
m i▁n
▁administr ation</w>
y le</w>
as k</w>
an▁ s</w>
▁s ports</w>
▁typ e</w>
▁1 3</w>
0 0
▁g etting</w>
e▁ se</w>
▁re duce</w>
▁underst and</w>
o▁ nd</w>
ot ed</w>
ain▁ st</w>
▁m ess
g n
▁pres s</w>
▁includ ed</w>
. 4</w>
▁f all</w>
▁an im
▁ac tive</w>
▁exper i
▁det ails</w>
▁busin esses</w>
por ▁t</w>
re es</w>
ae j
▁ter ms</w>
tr a▁
9 th</w>
▁& a▁
▁cont ent</w>
▁p or
▁un iversity</w>
▁on line</w>
oc ks</w>
in ing</w>
▁recor d</w>
d o▁ng</w>
g▁ h
is tics</w>
wh i▁le</w>
▁lea der</w>
ucl ear</w>
om ic</w>
an▁ ge</w>
▁d evel
por ▁
▁ill egal</w>
▁R ec
▁tr affic</w>
▁ret ur
▁f ee</w>
▁b us
▁V iet
▁tri p</w>
▁Tr ans
▁progr ams</w>
h im</w>
preh en
. 8</w>
▁s ett
ear ing</w>
e ight</w>
▁dis trict</w>
▁ et</w>
pl ement</w>
c▁ re
▁prin ci
▁govern ments</w>
onal d</w>
c a▁n</w>
▁A sian</w>
our th</w>
f▁ rom</w>
▁cons ult
▁concer ning</w>
is ions</w>
Par▁ ty</w>
▁spre ad</w>
o▁ un
d▁u c
▁com b
v ari
oo k
▁t old</w>
art ph
vi ew
▁t ow
▁determin ed</w>
in ter</w>
tim es</w>
n ▁u
▁d eath</w>
&▁ q▁u
o pl▁e</w>
ati▁ onal</w>
tiv es</w>
G over
▁inter ested</w>
k et</w>
▁su ffer
▁r ice</w>
▁eas ily</w>
▁an sw
▁m et</w>
ess ed</w>
▁exp and</w>
d on▁g</w>
▁in side</w>
o▁ c
Ko▁re a</w>
▁comm issi
w a▁
em en▁t</w>
th i▁s</w>
et c</w>
▁fil m</w>
▁g l
▁ er</w>
▁prescri bed</w>
r oss</w>
ot te</w>
ell ent</w>
e et</w>
D ec
utif ul</w>
▁consider ed</w>
▁l ack</w>
▁continu ed</w>
▁Wh y</w>
f u▁
▁St ate</w>
ti▁ es</w>
n ec
Ko▁re an</w>
▁P ublic</w>
s ign
▁rec ru
sc ri
▁tea ms</w>
▁g oods</w>
r ight</w>
▁charac ter
▁P h
▁w it▁h</w>
▁ch ief</w>
li k
Pro▁ v
▁g ave</w>
p▁ ol
▁h and</w>
ad ministr
▁av ailable</w>
ph as
▁al one</w>
▁P er
▁f emale</w>
pr is
▁w anted</w>
▁con fl
ab ly</w>
Prov ince</w>
▁improv ement</w>
ch e▁on</w>
▁t w
▁sum mer</w>
▁de emed</w>
H e</w>
▁du ties</w>
ow i▁ng</w>
. 7</w>
▁st ation</w>
▁immedi ately</w>
b r▁
▁par king</w>
▁l ist</w>
▁Y oon</w>
▁El ectronics</w>
u t▁
U ▁
C i▁ty</w>
▁s aw</w>
ur s</w>
ov ember</w>
b etwe▁en</w>
▁infl u
h y</w>
▁w oman</w>
▁stand ard</w>
▁compl ex</w>
▁1 3
▁be h
▁C o
▁devel op</w>
▁C l
▁wee k
▁th ere
▁l ight</w>
▁a w
▁p r▁
▁S eptember</w>
▁Intern et</w>
▁en d
l ev▁el</w>
▁t ick
ac t▁
▁Gang won</w>
w ide</w>
ap pen
▁st aff</w>
▁sus pen
▁d oll
▁d on
▁issu ed</w>
▁1 6</w>
o ds</w>
in e
▁manag er</w>
▁b ig
ong er</w>
hi▁ gh</w>
an d▁
A m
a x</w>
▁Dep artment</w>
m e▁m
ins ula</w>
▁vehic les</w>
▁ch airperson</w>
der ly</w>
bas ▁ed</w>
▁sched ule</w>
▁ac qu
wor ld</w>
▁G od</w>
▁201 6</w>
▁requ ired</w>
l ea▁
pos sible</w>
▁hea t</w>
m us
▁v ac
ef o▁re</w>
Gov▁ern ment</w>
▁comm er
p as
ex pl
▁p .m.</w>
orpor ation</w>
K i▁m</w>
tr▁ y</w>
um st
▁e stim
▁ar ti
res sed</w>
d oc
▁th ing</w>
▁car s</w>
v ol
▁person nel</w>
erv ation</w>
▁sc ene</w>
▁c old</w>
▁cor rec
c al
▁pati ents</w>
▁Th ese</w>
c os
▁larg est</w>
et ed</w>
ebru ary</w>
▁A ll</w>
,0 ▁00</w>
▁or din
▁trans portation</w>
▁go al</w>
▁stand ards</w>
v ic
u es</w>
a▁r t</w>
F in
▁h e▁
▁fam ous</w>
5 ▁
▁A gency</w>
wi▁ t▁h</w>
p ay
o f▁f
com m▁
o in▁
▁m ight</w>
tici pants</w>
▁s ou
y i▁ng</w>
or ed</w>
▁cont act</w>
▁J anuary</w>
wh▁ ich</w>
▁201 8</w>
▁est ate</w>
▁bel ow</w>
s ang</w>
re▁ c
h i▁s</w>
▁mat ch</w>
&ap▁os ;</w>
▁min imum</w>
▁M r.</w>
ver ▁
w▁ or
t▁ ri
at ur
▁O ctober</w>
▁pro g
S am
em entary</w>
▁tal k</w>
▁hea d
▁Da egu</w>
▁$ $</w>
m ake</w>
mor ▁e</w>
f y</w>
▁fur ther</w>
sa▁ ying</w>
s ity</w>
a f▁
li▁ ke</w>
coun t</w>
▁individ ual</w>
▁do esn</w>
on d
tim ▁e</w>
t▁ ly</w>
C o▁m
▁institu tion</w>
o h
▁v illage</w>
in tro
▁w i▁ll</w>
▁rel ation
m o
um e</w>
▁Y ang</w>
e ok</w>
▁r ap
▁n et
A n</w>
▁S pec
▁C urr
ul es</w>
▁sub mitted</w>
te▁ am</w>
t ake</w>
▁2 nd</w>
s iz▁ed</w>
▁proc ed
▁h on
▁proper ty</w>
▁ab o▁ut</w>
▁B e
ib er▁
ea▁ n</w>
U S</w>
&a▁pos;▁ d</w>
m▁ ay</w>
b us▁
p ;</w>
ou l▁d</w>
ec▁ ted</w>
▁m obile</w>
t e▁n
iv ▁e</w>
v is▁
▁A ugust</w>
▁sh ip
▁car ried</w>
▁a ▁
i▁ ze</w>
▁cl aim
▁b ack
j ob</w>
i▁ ly</w>
▁questi ons</w>
▁g ather
in d▁
▁lear n</w>
▁approv al</w>
▁wh▁ ich</w>
▁l ives</w>
▁aut om
wh at</w>
m▁ it</w>
▁l ec
istr i▁ct</w>
cr im
c ity</w>
▁D uring</w>
ec t▁ed</w>
o▁ o</w>
▁apar tment</w>
▁D ae</w>
it▁ s</w>
&ap▁os; ve</w>
▁e y
ic on
▁oper ated</w>
▁A ir
▁1 8</w>
▁p oor</w>
ec▁ ts</w>
▁trans fer</w>
h▁ in</w>
com peti
▁M us
busin e▁ss</w>
a ir▁
▁ag ric
▁H an</w>
s ystem</w>
▁sen ior</w>
ong s</w>
i▁ de</w>
▁1 ,
s ame</w>
▁fam ilies</w>
▁analy sis</w>
▁A ffairs</w>
u▁ m</w>
qu al
▁us er</w>
▁ch o
▁com pens
a x
▁contro versy</w>
y er</w>
▁d one</w>
▁ad ver
m in▁
▁restaur ant</w>
p o▁rt</w>
is ted</w>
a o</w>
▁cr isis</w>
▁do ing</w>
▁F estival</w>
▁y et</w>
▁1 4</w>
▁g ir
wo▁r k</w>
h u
Min▁is▁ try</w>
I f</w>
u▁ t</w>
ell ig
▁fu nd</w>
sh ar
▁f elt</w>
▁del ivery</w>
▁b ad</w>
d in▁g</w>
d a▁
k y
i res</w>
▁dis t
s et</w>
il l▁
▁sing le</w>
tr ad
▁y outh</w>
▁re port
▁b ill</w>
am ▁e</w>
▁star ting</w>
t▁ ic
e p▁
af t</w>
▁j ud
d i▁s
&ap▁os; re</w>
▁m other</w>
▁high est</w>
r▁ ed</w>
&▁a pos;
▁mod el</w>
▁consider ing</w>
s e▁r
▁f re
b l▁
▁inten ds</w>
▁Ad ministration</w>
it▁ ion</w>
▁g ames</w>
▁b ank</w>
be i▁ng</w>
e▁ st
clud ed</w>
R eg
▁temper ature</w>
▁qu ickly</w>
o▁ w</w>
▁wor k
▁wh ole</w>
▁ur ban</w>
h ood</w>
▁boo ks</w>
▁J i</w>
ar ies</w>
▁sk in</w>
D a
4 ▁
su mer</w>
▁execu tive</w>
o ch
▁ac tual</w>
the▁ y</w>
i e▁
▁ag encies</w>
u▁ c
▁str ateg
ti on▁s</w>
▁coll ege</w>
▁201 7</w>
re ment</w>
ec onom
I ▁n
a ut
▁pers onal</w>
▁ind epend
iv e▁r
ev al
▁t im
▁s ▁
&ap▁os; ▁
▁lea ding</w>
si b▁
▁L iber
▁A re</w>
id ▁ed</w>
d om
. 9</w>
▁f ell</w>
▁com ing</w>
sy st▁em</w>
at t▁
a ult</w>
▁app ointed</w>
▁19 9
ul ed</w>
▁M ed
▁bea utiful</w>
sh all</w>
▁man age</w>
i▁g n</w>
▁U .
er a</w>
▁u til
▁consum ers</w>
▁M on
▁Hy un</w>
▁B y</w>
eal s</w>
▁c entral</w>
▁Dec ember</w>
ta▁ ke</w>
pl ex</w>
▁opport unity</w>
▁cre dit</w>
ig r
▁ ing</w>
ent ing</w>
ar▁ d</w>
▁rece iving</w>
dr aw
▁y esterday</w>
J ong</w>
In tern
▁v en
▁W a</w>
a▁ ri
▁exam ple</w>
▁S ing
A cc
▁G u
T V</w>
&a pos▁;</w>
▁P en
m on▁
s▁ ion</w>
ac ks</w>
▁ris k</w>
▁L abor</w>
per s▁on</w>
a j
b el
▁re duced</w>
or ing</w>
▁a head</w>
tribu ted</w>
sel ves</w>
e th▁er</w>
chair m▁an</w>
▁cap ital</w>
▁B r
▁cer tain</w>
▁M anag
▁2 5</w>
ur y</w>
d uri▁ng</w>
▁ind ic
si▁ te</w>
en viron
o▁r d▁ing</w>
l der</w>
&▁q▁u ot;</w>
f ood</w>
▁lo an</w>
▁dis aster</w>
mosph ere</w>
▁T V</w>
s i</w>
▁s ent
it able</w>
k▁ ing</w>
▁h it</w>
▁sec retary</w>
▁professi onal</w>
augh ter</w>
o▁ k</w>
▁orig inal</w>
oun▁ g</w>
i en▁ce</w>
ear▁ ch</w>
▁deg rees</w>
g ing</w>
cor por
ativ ely</w>
▁in jur
D istri▁ct</w>
o▁ ple</w>
r i</w>
c ase</w>
▁Isl and</w>
esti g▁
ap pro
Ch air
▁stor es</w>
▁occ urred</w>
▁C EO</w>
r▁ ea
t ation</w>
▁com es</w>
▁C orporation</w>
st anding</w>
igh▁ t</w>
el▁ y</w>
aus ▁e</w>
▁exam ination</w>
▁E conom
▁w aste</w>
▁conc entr
ye a▁rs</w>
▁ad d
▁F rom</w>
s in▁ce</w>
id en▁t</w>
▁usu ally</w>
D ep
▁wea ther</w>
▁or dered</w>
▁in nov
g row
a▁ d</w>
▁wat ch</w>
▁in f
y ong
tur ▁e</w>
m ine</w>
e i▁
▁S ung</w>
irec tor</w>
k ▁ed</w>
b s</w>
D ong</w>
▁d riving</w>
k ey</w>
c over
▁h ot</w>
▁Kor eans</w>
▁del iver
wh ile</w>
ma▁ ke</w>
▁eff orts</w>
▁sh or
▁ra ise</w>
▁ac tion</w>
▁Curr ently</w>
▁gu id
m in</w>
i▁ ci
m i▁
di ff▁
F or
anc tions</w>
R ep
▁s ee
un der</w>
&ap▁os; ll</w>
or thern</w>
h ea▁
d e▁r</w>
you▁ ng</w>
l aw</w>
inv est
▁d ou
il ed</w>
▁un ion</w>
ehol ds</w>
s em
s ea
at ch</w>
▁s pen
inc i▁al</w>
f in▁
d a▁y</w>
Par ty</w>
&▁a p▁os
s▁ tr
i▁n a</w>
▁Th ank</w>
an▁ ts</w>
▁l if
j▁ in</w>
▁tr end</w>
r ate</w>
in ▁e</w>
e▁ ar</w>
▁ch airman</w>
u▁ ch</w>
ov ed</w>
a w▁
Y oung</w>
▁lear ning</w>
▁&apo▁s ;s</w>
et e</w>
▁&▁ amp;</w>
C O</w>
▁exc ellent</w>
▁col or</w>
iti e▁s</w>
i▁c y</w>
e or
▁charg es</w>
ow▁ er</w>
ectr ic</w>
ar ea</w>
n ey</w>
S t▁
▁tri ed</w>
ru g</w>
re present
p riv
i k</w>
d o
In dus
sec o▁nd</w>
▁th▁ at</w>
ell s</w>
▁s pr
in tern
▁h appen
m uch</w>
A s</w>
▁comm on</w>
4 0</w>
▁un ivers
▁reg arding</w>
▁m ind</w>
▁6 0</w>
pro▁ v
i on▁s</w>
g▁ ed</w>
▁f alling</w>
▁M ot
▁H wang</w>
u ter</w>
gr ad
th▁ em</w>
ter ▁
um an</w>
un ities</w>
m a▁ny</w>
▁bur den</w>
t i</w>
s ▁e</w>
i▁ f</w>
t em
▁commissi oned</w>
m a▁n</w>
is l
▁br ing</w>
▁all eg
our ce</w>
▁r en
▁h eal
▁Ch eong
▁h otel</w>
▁ach iev
▁J ang</w>
a▁ ble</w>
off▁ icial</w>
b ack</w>
▁inst alled</w>
t▁h eir</w>
oi▁n t</w>
t▁h a▁t</w>
O rdin
ar r
sp▁ ec
duc ing</w>
▁J eong</w>
e▁ y</w>
B C</w>
t ations</w>
o▁n al</w>
▁entr ance</w>
f ir
e ign
▁s yst
st and
ab or
▁adv ant
i▁ or</w>
ic ally</w>
ff i▁ce</w>
▁h er
ay▁ or</w>
B S</w>
fu ture</w>
for▁ m
e▁ ar
▁Prov incial</w>
ent▁ ly</w>
ae k
f ace</w>
he▁ l
▁Se ung</w>
pr ises</w>
▁mat ter</w>
▁h os
res i▁d
ea▁ ch</w>
▁perform ances</w>
oth es</w>
m en</w>
j i</w>
h▁ o</w>
a▁ ted</w>
2▁ 0
▁r ound</w>
▁ex erc
iti ons</w>
in stitu
thr▁ ee</w>
l eg
di ffer
▁st op</w>
h▁ eld</w>
▁h all</w>
▁201 5</w>
ur ed</w>
sh▁ ip</w>
li am
▁n orm
ar t▁
▁d own
▁V ice</w>
ic ▁es</w>
t oo</w>
i▁ ef</w>
as ▁t</w>
O S
▁L otte</w>
n▁ am</w>
1 5</w>
▁S m
▁tr ue</w>
▁rea sons</w>
▁produc ed</w>
▁&▁ qu
am ed</w>
▁reg ional</w>
▁concer ns</w>
▁comm unication</w>
y oung</w>
g overnment</w>
▁cou ldn</w>
▁c aught</w>
▁succ ess
▁F ebruary</w>
▁ch urch</w>
ibr ary</w>
ur t</w>
▁ac adem
▁T echn
▁Y eong
▁m emor
d ec▁
ut ors</w>
em b▁
olo▁ gy</w>
▁sum mit</w>
▁implem entation</w>
▁imp act</w>
▁cr ime</w>
pro bl
p resid
▁sit es</w>
n on</w>
en e
is on</w>
▁s ea</w>
e▁ l</w>
▁doc ument</w>
▁win ter</w>
▁f requ
r an</w>
▁Ch ung</w>
▁requ ested</w>
▁ey es</w>
res ent
p▁ ort</w>
▁mark ets</w>
▁f ig
▁O h</w>
or d</w>
▁w eb
st▁ r
▁relation ship</w>
▁acc idents</w>
▁P eople</w>
▁atten d</w>
▁tr ying</w>
▁n uclear</w>
▁D ef
▁pres sure</w>
▁N ovember</w>
si▁ de</w>
par ty</w>
o ff</w>
t our
el ds</w>
d ev
h a</w>
▁sup pl
t▁ ure</w>
pec ted</w>
ear by</w>
S ou▁th</w>
▁c enters</w>
c ast</w>
ai▁r s</w>
1 00</w>
&apos; t</w>
▁n ation</w>
▁dis app
k en</w>
▁r ead</w>
t op</w>
con struc
▁s ense</w>
ou▁ se</w>
on str
& amp;</w>
o hn</w>
1 0
▁e ight</w>
s er▁
re al</w>
p ower</w>
oo king</w>
a▁ m</w>
ar ily</w>
▁hear t</w>
tr a
i▁ z
▁im m
pre v
pl an</w>
es▁ s
▁lea ders</w>
▁investig ating</w>
▁benef its</w>
rou▁ nd</w>
▁re duction</w>
▁c eleb
▁Al so</w>
eh old</w>
i p▁
fi▁ r
e▁x t</w>
ay i▁ng</w>
man ag▁
re▁ g
ed s</w>
1 2</w>
▁r e▁
tr i▁al</w>
t o▁r</w>
ult i</w>
▁s ai▁d</w>
▁educ ational</w>
th rough</w>
▁A t
▁wor th</w>
▁ph ys
▁im plement</w>
b▁ ec
▁J ustice</w>
uclear ization</w>
▁go▁ ing</w>
▁b ri
m ee
oc i▁al</w>
manag eme▁nt</w>
a u</w>
▁r ain</w>
▁H ealth</w>
bu il
th ea
istr ation</w>
at▁ er</w>
▁sub par
▁concer t</w>
▁p un
ab les</w>
b and</w>
▁w id
▁notif y</w>
▁for ward</w>
me ans</w>
icon duc
▁Gang nam</w>
1 8</w>
▁in ter</w>
▁enter ed</w>
▁circ umst
ut or</w>
▁ann ual</w>
n▁ ing</w>
ful ly</w>
a▁n cial</w>
▁s exual</w>
▁res t</w>
▁r ates</w>
▁J in</w>
▁m er
▁de pos
▁l ow
oo▁ k</w>
▁f ather</w>
oo▁ d</w>
g l
an ch
▁m etropolitan</w>
ou▁ gh</w>
dic tion</w>
W ▁e</w>
▁sh owing</w>
et ings</w>
a ul
su p▁
▁victi ms</w>
▁br and</w>
&ap▁os▁ ;
▁% %</w>
▁custom er</w>
▁Rus sia</w>
ol▁ d</w>
▁p resid
al es</w>
▁M ost</w>
▁L ocal</w>
s ts</w>
d▁ is
▁hea vy</w>
t ained</w>
▁it self</w>
▁d uty</w>
os eon</w>
en▁ t
▁c amp
▁wr iting</w>
▁h our</w>
▁S ong</w>
pr▁ ov
l i▁ne</w>
it▁ ies</w>
ener al</w>
tiv eness</w>
sch ool</w>
re pres
el▁ d</w>
▁foll owed</w>
▁dis tribution</w>
bu ild
P reside▁nt</w>
▁wr ong</w>
▁af t▁er</w>
vis ory</w>
▁t aste</w>
▁inter pre
▁beg inning</w>
ul ate</w>
tis ts</w>
▁g overnor</w>
▁K ong</w>
l san</w>
▁w ▁
▁var iety</w>
co▁ un
▁g row</w>
▁3 rd</w>
por ▁ts</w>
om▁ ic</w>
o ot</w>
h ist
▁c ut</w>
▁2 4</w>
▁dr ama</w>
no▁ w</w>
▁qu estion</w>
▁coun cil</w>
▁corpor ate</w>
m od
A l
▁mom ent</w>
▁pop ulation</w>
▁s ong</w>
▁differ ence</w>
t ress</w>
▁beh ind</w>
▁ar riv
B l
ae k</w>
▁struc ture</w>
l ement</w>
▁p eti
▁int egr
ular ity</w>
k now</w>
ea v
eed ed</w>
P l
▁b ase</w>
e▁n s</w>
con t▁
▁s n
t▁ er
ti▁ v
l▁ es</w>
Com m▁
▁D onald</w>
m▁ on
en▁ se</w>
▁ow ner</w>
▁gu arant
an▁ d
ti▁ n
d▁ id</w>
bec au▁se</w>
M ar
▁f avor
c ally</w>
▁kin derg
▁Y oo</w>
c▁ il</w>
b eg
ul▁ ar</w>
▁organiz ed</w>
im plem
Ch oi</w>
▁vi ew</w>
▁m en
ul ated</w>
▁indus tries</w>
▁en cour
▁buil d</w>
w ou▁ld</w>
▁high ly</w>
ec o▁n
▁play ed</w>
▁expres sed</w>
id ge</w>
h ome</w>
be▁c a▁use</w>
▁s ession</w>
J ap▁
▁c ur
s oo</w>
▁res ources</w>
▁intro duce</w>
i▁ l</w>
▁wh ose</w>
▁hous es</w>
▁S un
▁Ch airperson</w>
i a▁l</w>
E m
▁w in</w>
ou ▁s</w>
▁st ay</w>
▁enti re</w>
u m▁
is tered</w>
S erv
o e</w>
N ew</w>
ip t</w>
ess ing</w>
a▁ fter</w>
▁hol ding</w>
wi▁ th
re w</w>
ag ain</w>
Y e
▁f ile</w>
pri ate</w>
▁ser ies</w>
qu are</w>
s on
▁p i
p▁ h
2 5</w>
▁t en
▁s ale</w>
▁Y ong
j us
h▁ ow</w>
D o</w>
▁volun te
▁sh opping</w>
J i</w>
▁Trans port</w>
t en</w>
pec tively</w>
v e
▁sm artph
▁eval u
▁bo ard</w>
p ubl
ar b
▁im age</w>
▁N am
ay in▁g</w>
ac tion</w>
Prov ▁
vari o▁us</w>
g le</w>
▁tea cher</w>
m ain
ag ain▁st</w>
▁at mosphere</w>
▁&a p▁os
sch o▁ol</w>
er ve</w>
1 3
▁m ut
▁gre en</w>
▁A p
i a▁ls</w>
▁dis ease</w>
ar▁ ea</w>
▁1 8
th e▁r</w>
e▁r n</w>
Gye o▁ng
▁s am
▁law mak
▁H igh</w>
s▁ oo</w>
ing ly</w>
ir e▁c
d i▁n
compan y</w>
▁inst all
▁prot ection</w>
o in</w>
▁u ng</w>
▁s ays</w>
▁K yung</w>
ust ment</w>
▁v ice</w>
▁s ud
▁p l▁
▁dr am
▁G re
expec t▁ed</w>
agrap hs</w>
y cle</w>
duc t</w>
▁w ays</w>
▁af ternoon</w>
▁O ur</w>
▁Ger many</w>
▁el ig
▁S p
▁r ati
▁re ferred</w>
▁F und</w>
o▁ un▁
l a▁r
it ation</w>
ver s</w>
su▁ ng</w>
end a</w>
▁av o
vi ol
an ch</w>
▁particip ation</w>
▁1 7</w>
rou gh
evelop ment</w>
d am
S .
▁r e</w>
▁b ought</w>
▁compl ain
sc a▁le</w>
k ay</w>
20 1▁
n e▁xt</w>
▁f ailed</w>
▁el derly</w>
▁div ision</w>
▁real ity</w>
inv estig▁
▁s cor
▁m ach
▁fil ed</w>
▁Liber ty</w>
ud d
pro v▁
o ffice</w>
ff ee</w>
▁m ul
▁g round</w>
b ass
▁em phas
▁cl ub</w>
▁D es
owl edge</w>
▁Y e
u▁l t</w>
▁com prehen
neg oti
ivers ary</w>
in form
er ce</w>
Ordin an▁ce</w>
▁laun ched</w>
▁foc us</w>
▁Viet nam</w>
m a</w>
e um
▁enj oy
v e▁r
▁par ticipants</w>
oin tment</w>
▁s ymp
▁direc t</w>
▁bl ood</w>
▁l os
o▁t e</w>
i en
C enter</w>
▁vis itors</w>
s ec▁
ou gh
m illi▁on</w>
▁wh ite</w>
s a</w>
en▁ d
▁r ed</w>
tic▁ le</w>
g ery</w>
T h▁
▁Se o</w>
tern al</w>
▁rea ding</w>
in c▁
ig ▁n
b est</w>
▁w al
▁univers ities</w>
▁pos itive</w>
▁coll ection</w>
▁Spec ial</w>
▁Pro f
j ud
▁p oll
▁lim ited</w>
▁accoun ting</w>
▁vi ew
▁In v
s s▁
e▁ ms</w>
th em
f▁ am
S u▁
Prov inc▁e</w>
▁con ference</w>
el f</w>
a▁ bl
s ti▁
an a</w>
pl▁ an</w>
en▁ d</w>
el ed</w>
U ▁n
▁wor ked</w>
▁th e▁re</w>
m ain</w>
▁s anctions</w>
▁h ands</w>
▁ch ild
▁d est
▁A sia</w>
ch ain</w>
▁v ir
t ogether</w>
be e▁n</w>
▁sim ple</w>
o▁ t</w>
is tic</w>
ir ing</w>
g▁ i</w>
e▁ w</w>
▁tr ain</w>
▁R e
▁Dis trict</w>
t oday</w>
t est</w>
Un iver
▁s ell</w>
▁l oss</w>
▁entr usted</w>
er t</w>
▁predic ted</w>
▁direc tion</w>
ru p
ra z
in ner</w>
▁some one</w>
▁S on</w>
uc k</w>
W h
▁prescri be</w>
▁di ed</w>
P h
▁lo ans</w>
▁inst ead</w>
oun▁ d</w>
▁hous eholds</w>
id e▁nt</w>
g e▁n
1 1</w>
▁particip ating</w>
▁p ost</w>
sec u
ro w▁
t ent</w>
s u</w>
2 2</w>
▁tea chers</w>
▁sol ve</w>
▁re ports</w>
▁G r
m a▁n
im prov
ag ing</w>
▁p ot
▁ear lier</w>
▁exc ept</w>
y ers</w>
an e</w>
▁spec ific</w>
t ea
6 0</w>
▁O f</w>
▁J in
ow▁ ed</w>
▁h u
at▁ io▁n</w>
▁inc ident</w>
▁ac ross</w>
id ly</w>
▁C ould</w>
▁Americ an</w>
inten dent</w>
ill ing</w>
▁a im
▁Manag ement</w>
et er
d oor</w>
ow ers</w>
S▁e oul</w>
we▁ ll</w>
memb e▁rs</w>
D emocr
s c▁
pla▁ ce</w>
g es</w>
f▁ irst</w>
1 9</w>
atten tion</w>
k in▁g</w>
clud ing</w>
6 ▁
tain ment</w>
s im
iz es</w>
▁w as
▁4 th</w>
▁g as</w>
si o▁n</w>
c▁ t</w>
h ear
▁sched uled</w>
▁n ation
h ouse</w>
▁sus pic
▁all ow</w>
i▁ te</w>
▁tem por
r▁ y</w>
o▁ m</w>
ed eration</w>
f▁ l
ea ter</w>
c u▁
g▁h t</w>
f▁ o▁r</w>
coun ▁
D em
▁tour ists</w>
▁L ast</w>
an c▁
▁re ven
▁b ar
l▁ th</w>
l ymp
&ap▁os; v▁e</w>
s y▁
id s</w>
g en</w>
ec k</w>
▁cl othes</w>
incre as
ear ance</w>
A▁ ct</w>
▁ser ious</w>
▁res tric
j▁ u</w>
b um</w>
ye▁ on</w>
i x
▁f ro▁m</w>
th ly</w>
▁pl ant</w>
tic ism</w>
oth ers</w>
ex am
at▁ ions</w>
D ong
n▁ ment</w>
▁per form</w>
▁p aper</w>
w▁h ic▁h</w>
iber▁ ty</w>
▁s ev
▁broad cas
in spec
▁difficul ties</w>
▁coun sel
ip p
▁mov ement</w>
or ▁s</w>
it▁ al</w>
&a▁pos;▁ m</w>
Ch ung
▁de al</w>
▁M in</w>
o▁ ur</w>
b u</w>
ar ious</w>
h ere</w>
▁ex chang
▁e specially</w>
▁N am</w>
compan ies</w>
att e▁n
▁N ow</w>
▁p o
▁ar gu
0 0,000</w>
0▁ 0</w>
▁agre ed</w>
▁L ea
▁1 9</w>
v▁ is
s om
a im</w>
▁w ish</w>
▁ch ance</w>
u i</w>
sh ou▁ld</w>
st or
ol▁ l
C EO</w>
st at
▁loo ks</w>
ter y</w>
c e▁n
▁u m</w>
▁l and
▁bl ack</w>
▁Je oll
r ant</w>
m ation</w>
fo▁r m</w>
con tro
c i▁ty</w>
▁s atis
▁p m</w>
▁mater ial</w>
pr ise</w>
▁pl at
▁l iv
▁b anks</w>
h om
▁Y ork</w>
▁M ore</w>
e i</w>
▁Ch ief</w>
▁i r
▁dri ver</w>
▁compens ation</w>
pl o▁
iv al</w>
re t</w>
▁ab ove</w>
sid er</w>
▁bu ild
wh ic▁h</w>
b ly</w>
▁n ature</w>
▁ful ly</w>
in ated</w>
ation ▁s</w>
▁sec ure</w>
▁T ae</w>
m emb▁er</w>
1 8
▁tur ned</w>
sp e▁
don es
trib ute</w>
ou▁r t</w>
▁s ure</w>
c aus
a▁ id</w>
th ree</w>
or g
op ped</w>
▁mess age</w>
▁D on</w>
sh i▁
m▁ in</w>
al ization</w>
▁wh ic▁h</w>
▁st reet</w>
▁pass eng
d it
Ch o</w>
▁a .m.</w>
U .
▁spe ed</w>
▁bro ke</w>
▁analy zed</w>
o x
g ation</w>
am o▁ng</w>
▁ra ising</w>
▁prov isions</w>
▁new ly</w>
▁c over
▁St ud
ul ting</w>
▁p ass</w>
▁en sure</w>
▁becom es</w>
▁b al
▁Def ense</w>
se▁ l
enti▁ al</w>
di a</w>
t ea▁
res p
ac c▁
▁foll ow</w>
▁L G</w>
fri end</w>
b▁ een</w>
ain i▁ng</w>
▁go es</w>
if y</w>
▁sk ills</w>
d e▁c
com pl▁
c re▁
▁recor ds</w>
mark ▁et</w>
▁net work</w>
▁el ementary</w>
sm a▁ll</w>
ou▁n t</w>
ic an</w>
ci pl
a▁ ce</w>
F r
▁p ain</w>
u ed</w>
ti e▁s</w>
an ad
▁sh own</w>
r ing</w>
ustr al
▁w on
▁invol ved</w>
▁Rec ently</w>
rou ght</w>
r o</w>
▁Kor ▁
ove▁r n
or▁ y</w>
▁qu arter</w>
anc i▁al</w>
▁l un
▁hol iday</w>
pl om
b o</w>
▁reg istration</w>
P ol
▁un f
h ow</w>
▁n earby</w>
num b▁er</w>
he▁l p</w>
▁s on</w>
▁for ce</w>
a▁ in</w>
▁hear ing</w>
▁In frastructure</w>
fort able</w>
ff▁ ice</w>
ent▁ al</w>
▁ev idence</w>
▁agric ultural</w>
o ke</w>
f l▁
▁d ream</w>
▁ac t</w>
w ater</w>
ur ities</w>
ten ance</w>
t le</w>
▁mov ed</w>
▁deliver ed</w>
s eong</w>
be ing</w>
announ c▁ed</w>
ad minis
201 8</w>
d iv
bro ad
ag ric
Acc o▁rd▁ing</w>
▁streng then</w>
pr ised</w>
es day</w>
▁D ue</w>
ac king</w>
▁m y
▁in iti
aej eon</w>
▁re ti
ev ent</w>
▁deter mine</w>
▁candid ates</w>
ear ▁s</w>
an ti
▁separ ately</w>
▁con dition</w>
oti ce</w>
m▁ y</w>
h igh
▁eff ects</w>
▁K ing</w>
oo d
▁e ss
h es</w>
▁C ulture</w>
ow▁ n</w>
est ab
▁negoti ations</w>
▁complet e</w>
yp t
per c
co▁ me</w>
G w
▁add ress</w>
▁Se ong
l▁ ea
▁S ang</w>
y un</w>
▁recomm ended</w>
▁environ mental</w>
▁big gest</w>
a b</w>
▁st ep</w>
▁re plac
p▁ er</w>
or der</w>
offic ial</w>
▁s orry</w>
▁rel atively</w>
▁prof it</w>
▁F ac
▁1 5
mee ti▁ng</w>
ad ▁e</w>
pro je▁ct</w>
it ment</w>
e▁ g
▁w ife</w>
t u▁r
is diction</w>
ch arac
T ▁h
ul l
cl ear</w>
▁expan sion</w>
eb ook</w>
ay ▁s</w>
▁vis iting</w>
▁conven ience</w>
h ead
▁s afe</w>
▁re form</w>
h os
e▁ as
b ir
▁ha ir</w>
t in
ter ▁s</w>
▁un it</w>
▁rece ipt</w>
▁all owed</w>
▁Indus trial</w>
w▁h en</w>
su it</w>
occ er</w>
en i▁ng</w>
▁pre vention</w>
▁o ffer
i▁s m</w>
it ted</w>
con diti
▁intern al</w>
▁implem ented</w>
fr▁ ee</w>
M anag
▁s ound</w>
▁d ig
▁con trac
pro gr
▁E ast</w>
ish ment</w>
e▁ ts</w>
1 3</w>
▁typ es</w>
g ov▁
▁over all</w>
▁ne igh
▁gre at
wor ks</w>
al ized</w>
s or
re▁ l
im self</w>
▁elig ible</w>
▁Sec urity</w>
▁S afety</w>
etro po▁l
a▁ me</w>
▁tax i</w>
▁reg istered</w>
▁grad u
spec i▁al</w>
in g▁
▁s elling</w>
▁candid ate</w>
ic ine</w>
▁consider ation</w>
▁gener ation</w>
ea ses</w>
▁includ es</w>
▁2 00</w>
v a▁ri
t▁h er</w>
re v▁
▁o lder</w>
m at▁
econ om▁ic</w>
th▁ rough</w>
▁b at
▁For eign</w>
enti oned</w>
▁par k</w>
▁a war
eb all</w>
▁un ique</w>
▁air port</w>
▁P ol
ut ting</w>
sa▁ me</w>
ris ti
og y</w>
a ign</w>
al s▁o</w>
▁qu al
▁pl ac
o▁m y</w>
en tr▁
▁m ak
▁clos ed</w>
w as
r a▁te</w>
T S</w>
▁car ry</w>
n ation▁al</w>
ellig ence</w>
20 0
▁C up</w>
c ri▁
Se ou▁l</w>
▁separ ate</w>
▁proper ly</w>
▁in ▁
▁co ffee</w>
s yst
oo▁ l</w>
is her
e f▁
p▁ eople</w>
▁m id
▁en h
ivers i▁ty</w>
ab y</w>
▁s ign</w>
▁rel ease</w>
▁M at
▁H all</w>
sup port</w>
as ty</w>
▁r ad
▁gather ed</w>
▁invest ors</w>
▁f un</w>
▁f ourth</w>
▁dis clos
t▁ w
1 2
▁certif icate</w>
▁build ings</w>
res t</w>
indus try</w>
g ame</w>
▁id ea</w>
s▁ p
ow er
c tions</w>
▁pre m
▁Ab out</w>
o▁n y</w>
▁draw ing</w>
i on▁al</w>
▁signific ant</w>
Pres▁ ident</w>
C ent▁er</w>
▁phys ical</w>
s▁ et</w>
o▁ ld</w>
S ung</w>
u▁ ty</w>
us h</w>
▁doll ars</w>
ess▁ or</w>
ch ar
▁c op
w s</w>
in v▁
▁c h▁
f e
▁circumst ances</w>
▁1 0th</w>
our n
▁them selves</w>
▁it em</w>
▁aud ience</w>
f our</w>
▁loc ation</w>
▁ex port</w>
p▁ er▁
▁Je on
m en▁ts</w>
ent e▁r</w>
a▁l f</w>
▁A ir</w>
▁t urn</w>
▁p eace</w>
▁W elfare</w>
▁20 th</w>
ful l</w>
▁class es</w>
an m
▁b ott
▁author ity</w>
▁G eneral</w>
su per
▁prog ress</w>
s▁ an</w>
oc ked</w>
ha▁ d</w>
s c▁h
l ead
develop me▁nt</w>
M in
p ean</w>
ong ▁
▁Ta i
▁fun ction</w>
▁for est</w>
su▁ r
▁wa it</w>
▁ev er</w>
ver se</w>
ang ▁
▁corpor ation</w>
j▁ ect</w>
en ch</w>
▁Res earch</w>
id o</w>
g re▁
▁Sec retary</w>
si t▁y</w>
k y</w>
ing u
eep ing</w>
com ing</w>
7 ▁
▁f ast</w>
▁201 9</w>
re a▁
▁consult ation</w>
p▁ rov
N▁ orth</w>
▁viol ence</w>
▁coll ected</w>
&a▁pos▁ ;m</w>
▁hu ge</w>
▁dis p
op e▁r
C e▁n
▁rea ched</w>
▁publ ic
▁W ave</w>
▁201 4</w>
u ▁e</w>
am p</w>
▁j ur
▁ab ility</w>
▁F oundation</w>
pol ▁
▁web site</w>
▁aut onom
f ive</w>
▁bas is</w>
▁ann iversary</w>
oun ding</w>
ol ution</w>
hel p</w>
en▁ ter</w>
d▁ i
ou▁ r</w>
iz ▁
N S</w>
▁s av
▁pro posed</w>
olog ies</w>
b ea
K ang</w>
▁dec lar
or i</w>
direc t▁or</w>
▁P yeong
ester n</w>
▁tour ism</w>
▁manufactur ing</w>
f▁or mer</w>
▁resol ution</w>
▁b it</w>
▁7 0</w>
sh ips</w>
ch i</w>
art en</w>
▁prov iding</w>
▁cre ating</w>
ypt oc
ter n</w>
▁S K</w>
r am</w>
is i▁on</w>
off i▁ce</w>
j e</w>
c ar</w>
be▁c au▁se</w>
▁co ach</w>
▁ac tually</w>
w eek</w>
W or
▁t ou
w▁ ant</w>
sit u
s ee</w>
▁super vis
▁rec over
▁E ar
g un</w>
C om▁
▁s urr
▁pop ularity</w>
m▁ ak
▁respon sible</w>
uc▁ h</w>
iti▁ ng</w>
▁ur g
▁C entral</w>
▁stat ement</w>
▁confl ict</w>
r▁ el
Minis t▁ry</w>
Ch i▁na</w>
▁R iver</w>
on ds</w>
ap ore</w>
▁l og
▁head quarters</w>
i ew</w>
▁pr os
a▁ tions</w>
▁streng th
▁D evelopment</w>
t ments</w>
os is</w>
&▁a pos▁;</w>
▁cri tici
t▁ ur
▁m o
▁arres ted</w>
▁ab road</w>
s▁ ee</w>
v ey</w>
Ass oci
▁pro posal</w>
▁Su per
ta x</w>
▁A hn</w>
p▁ ed</w>
▁wa iting</w>
▁v oice</w>
y ong</w>
sy ch
▁tal ks</w>
▁lim it</w>
o▁ ff</w>
incl▁u ding</w>
▁sec tion</w>
▁g iving</w>
▁T oday</w>
ular ly</w>
il i▁ty</w>
ic ts</w>
b usiness</w>
▁n ur
▁C ultural</w>
▁prac tice</w>
▁play er</w>
▁Pr osec
str eng
mo▁ st</w>
iv ▁ed</w>
end▁ ly</w>
ch arg
▁rati o</w>
▁r an
h ee</w>
▁me etings</w>
▁k illed</w>
▁character istics</w>
▁Sh in
▁H is</w>
er ous</w>
ch ild
▁cl ean
pre ci
ad ium</w>
&q▁u ▁ot;</w>
en▁ ed</w>
1 6</w>
▁inter view</w>
▁hous ehold</w>
▁den uclearization</w>
us ion</w>
i▁ p
il es</w>
w ards</w>
er▁ n
ad d
ock chain</w>
▁ow ners</w>
▁every thing</w>
▁el ectric</w>
w oo</w>
ab▁ or</w>
l if
▁sh ip</w>
▁retur ned</w>
▁ag enda</w>
▁D irector</w>
gr o▁
tici p▁
▁main tain</w>
n▁ er</w>
c ul▁
▁disab led</w>
t▁ il</w>
▁s earch</w>
▁targ et</w>
pr▁ es
memb ers</w>
mea sur
▁sea ts</w>
ol f</w>
e▁ as</w>
▁design ed</w>
▁Euro pe</w>
m otion</w>
h ar
p▁ ro▁
go▁ od</w>
af e▁ty</w>
▁w ave</w>
▁every one</w>
▁al most</w>
pr i▁
l evel</w>
▁g ap</w>
ten s</w>
p▁ op</w>
art me▁nt</w>
▁comprehen sive</w>
▁En viron
▁m as
▁l onger</w>
▁aff ili
▁Ch eong</w>
z ens</w>
m▁ ber</w>
it▁ tee</w>
▁prepar ing</w>
ploy ment</w>
so▁ o</w>
▁dep ending</w>
p ut</w>
▁wat ching</w>
▁ad j
▁for eign
▁dr ink</w>
▁det ailed</w>
im inal</w>
ust ee</w>
▁Su won</w>
t ant</w>
sc ape</w>
por ter</w>
b ook</w>
2 1</w>
▁h ear</w>
id ential</w>
ex pres
pol icy</w>
it ary</w>
▁sign ed</w>
▁Y ong</w>
; ▁t</w>
▁main ly</w>
u al
▁r ising</w>
▁recogn ized</w>
▁meth ods</w>
so▁ me</w>
▁becom ing</w>
▁8 0</w>
st u▁d
rough out</w>
or d▁er</w>
▁prot ect</w>
▁pri ze</w>
▁ch e
▁S i</w>
y ph
T ae</w>
u als</w>
sider ing</w>
▁cl ean</w>
▁Rep resent
O ffi▁ce</w>
▁F ood</w>
▁D id</w>
eav or</w>
ab l▁e</w>
S. -
▁expec ts</w>
▁div ided</w>
r▁ eg
r▁ ee</w>
▁pos ted</w>
▁laun ch</w>
▁S un</w>
in▁ k</w>
▁c ul
▁a ▁t</w>
m an▁
oun ded</w>
il ▁e</w>
ati cally</w>
▁charac ter</w>
pr e▁s
▁f air</w>
▁7 th</w>
k n▁ow</w>
in fl
igh ting</w>
1 5
es ter</w>
ac cor
▁respon sibility</w>
▁commer cial</w>
mea sures</w>
il▁ ity</w>
e tion</w>
as si
C▁ EO</w>
▁stud ying</w>
▁&▁qu ot;</w>
t y▁
b ody</w>
b ec▁
▁d ance</w>
▁ch all
sch ed
pur su
ing ▁s</w>
▁sh▁ all</w>
▁sub scri
▁sc ope</w>
▁rea ch</w>
▁5 th</w>
r ul
▁in s
▁all ow
ult u▁re</w>
igh tly</w>
▁vac ation</w>
▁re pea
▁prov ides</w>
ye o▁n</w>
r ▁un</w>
i h
a is
Se ung</w>
▁pl anned</w>
▁I m
ta▁ in</w>
&a▁ p▁os
▁ar tists</w>
▁al though</w>
▁acc ess</w>
f i▁n
an y
Minis t▁er</w>
reg ul
▁n otice</w>
po▁ in
con duc
7 0</w>
▁J oseon</w>
d o▁wn</w>
▁t able</w>
▁princi ple</w>
▁estim ated</w>
n▁u m▁ber</w>
▁l ic
▁fi elds</w>
▁Un like</w>
ip ped</w>
▁w ind</w>
▁mov ing</w>
▁St ar
ro r</w>
▁f o▁r</w>
▁em ail</w>
pr ac
b ig</w>
Par t▁y</w>
▁un d▁er</w>
educ ati▁on</w>
▁f res
f are</w>
▁exerc ise</w>
▁Y ear</w>
▁Ex c
ow on</w>
or ies</w>
li▁ fe</w>
c ol
▁wee ks</w>
▁t ex
▁reg ions</w>
▁er a</w>
n ame</w>
f a▁c
ectron ic</w>
L i▁
▁u l</w>
in n
er ry</w>
el▁ l</w>
c▁ y</w>
coun try</w>
▁report edly</w>
▁del ayed</w>
V ▁
▁dis mis
e▁ es</w>
▁l at
su▁ l
i ation</w>
ell ow</w>
▁m entioned</w>
▁improv ed</w>
p reside▁nt</w>
l et
K RW</w>
1 7</w>
▁Prof essor</w>
▁2 1</w>
▁expan ding</w>
▁expan ded</w>
▁a b▁
un k</w>
s eo</w>
m ar▁
ick en</w>
T u
▁sem iconduc
▁c ash</w>
▁Techn ology</w>
u tr
iz ati▁on</w>
end ly</w>
▁comm unic
p▁ olice</w>
i▁ th</w>
b ing</w>
C T</w>
▁answ er</w>
re▁ e</w>
▁any thing</w>
▁B o
ou d</w>
ic▁ ial</w>
▁cho ose</w>
▁accoun ts</w>
H ▁e</w>
C o
▁w ide</w>
▁proced ures</w>
m▁ ed</w>
i▁ a</w>
is ▁h
e▁c tion</w>
▁u m
▁per mission</w>
▁pl aying</w>
▁main tenance</w>
t e▁rs</w>
l ight</w>
ac ked</w>
▁wr ite</w>
▁run ning</w>
v i▁ce</w>
us band</w>
o ad</w>
gover▁n ment</w>
▁ex am</w>
g h▁
ri ve</w>
er m
A c
b efo▁re</w>
▁u c
▁con vers
▁c as
▁C anad
w ea
h an</w>
ess ment</w>
▁bre ak
w▁ an</w>
i▁ ties</w>
A gric
▁hea ds</w>
▁app ointment</w>
▁A ustral
ffici ent</w>
▁subsid ies</w>
▁r ange</w>
▁intro duction</w>
▁T ur
▁A gric
w er▁e</w>
e▁ an</w>
S▁ t
▁res ident</w>
x im
ul ner
s oci▁al</w>
comm ittee</w>
▁h osp
serv i▁ce</w>
ea▁ se</w>
▁shar ing</w>
▁jur isdiction</w>
us es</w>
a i▁n</w>
▁app eared</w>
▁dis count</w>
▁W on</w>
op in
eal ing</w>
▁super intendent</w>
▁rem aining</w>
▁in struc
▁cre ation</w>
au thor
▁t as
▁recomm end</w>
sp▁ec ial</w>
r u▁
▁sen s
▁mov ies</w>
re at
ere fore</w>
▁for med</w>
n e</w>
2 4</w>
i▁n k</w>
end ation</w>
a▁n d
▁investig ate</w>
▁acc ep
▁Bl ue</w>
J in</w>
I ▁t</w>
▁not hing</w>
um s</w>
▁employ ee</w>
▁bo x</w>
ang ju</w>
and ed</w>
▁lim its</w>
▁l ibrary</w>
t oms</w>
sid ▁
en g</w>
▁h op
▁2 3</w>
▁Euro pean</w>
▁ex act</w>
ri es</w>
priv a▁te</w>
en ior</w>
1 4</w>
▁r ental</w>
▁2 2</w>
ru ption</w>
l e▁ss</w>
e tic</w>
B us▁
▁sel ect</w>
m ir
▁g ift</w>
▁In dones
H ong</w>
▁s cience</w>
▁l etter</w>
▁l e
▁influ ence</w>
▁a ward</w>
▁Dec ree</w>
resid ents</w>
fri end▁ly</w>
comp a▁ny</w>
9 ▁
▁un its</w>
▁st ocks</w>
▁per c
▁install ation</w>
m em▁
ic ated</w>
al▁ l
▁im pres
resid en▁ts</w>
ot▁ al</w>
re au</w>
par t</w>
En g
▁S cience</w>
s e▁n
on ing</w>
ic ul
es▁ t
▁tow ard</w>
▁fir s▁t</w>
▁f ishing</w>
our ism</w>
ch it
&qu ▁o▁t;</w>
▁fac tory</w>
pol iti
ex per▁
Pres▁ iden▁t</w>
▁w ants</w>
▁sel ection</w>
▁gr ade</w>
▁19 th</w>
ta x
G o▁
▁restaur ants</w>
i▁ st</w>
f oc
e u
c ur
Ch ang</w>
▁special ized</w>
▁pic tures</w>
▁Th rough</w>
with o▁ut</w>
mak i▁ng</w>
▁B u
it age</w>
dep end
▁Y our</w>
▁D aejeon</w>
▁&a p▁os;s</w>
▁Th erefore</w>
▁H u
por t▁
l▁ ow</w>
l ines</w>
▁phot os</w>
o▁re ign</w>
is try</w>
▁mean ing
▁coll ap
▁3 1</w>
is▁ ion</w>
ew ork</w>
e o▁ng</w>
stud en▁ts</w>
pre par
den ly</w>
▁sur gery</w>
f ire</w>
▁qu ite</w>
▁in form
di an</w>
be fore</w>
Democr at▁ic</w>
Ch▁ oi</w>
▁met ers</w>
▁expec t</w>
▁1 8th</w>
wh▁ at</w>
us i▁ng</w>
▁hist or
▁f ail
un i▁ty</w>
dis tr
is ten
ar e
ac ity</w>
▁heal thy</w>
▁h ▁
h▁ av
f▁u l</w>
▁presid ential</w>
▁incre ases</w>
▁fl ight</w>
▁farm ers</w>
▁dram as</w>
vi ews</w>
r un</w>
▁maj ority</w>
▁ex em
▁K ak
▁19 8
ter ing</w>
os an</w>
ir it</w>
, 5
▁br anch</w>
▁For mer</w>
p u▁r
des ign
D ae</w>
▁m ist
▁eff ective</w>
▁def ense</w>
t▁h an</w>
k ▁s</w>
c ou▁ld</w>
.▁ m.</w>
en tur
▁sch ol
▁par t
i▁ an</w>
f ree</w>
P▁ ar
G▁ yeong
ti▁ ce</w>
▁f os
▁do or</w>
▁dem onstr
▁ad op
va▁ri ous</w>
ur i▁ty</w>
sec ond</w>
p ur▁
elf a▁re</w>
al ay
▁O ffic
al▁ es</w>
▁ex ports</w>
▁advant age</w>
p on</w>
i▁ um</w>
▁in conven
▁Ex per
▁Ch r
z ing</w>
ir▁ ec
a▁ir m▁an</w>
▁end eavor</w>
▁counsel ing</w>
u▁ s</w>
▁bre ak</w>
▁succ ess</w>
▁Air port</w>
t ary</w>
row▁ th</w>
p u
oo ks</w>
oc i▁
l ot</w>
▁f r▁
sh o▁
s e▁c
l arg
▁sl eep</w>
▁canc er</w>
▁ex ternal</w>
▁mon thly</w>
j ec▁ts</w>
t▁h is</w>
g roup</w>
▁rap idly</w>
gro▁ up</w>
Hy un</w>
▁u l▁
▁sol di
▁ar r
issi on
▁th inking</w>
▁success ful</w>
b eh
▁pos t
o k▁
▁con sumer</w>
t og
par▁ ty</w>
inc o▁me</w>
dis cus
ar ou▁nd</w>
Y oo</w>
▁di agn
igh▁ ts</w>
d ire▁c
▁’ ’</w>
▁sus pected</w>
▁chang ing</w>
m il▁
c a▁re</w>
▁res c
▁f oundation</w>
▁discus s</w>
m i▁ll
hy ▁un</w>
e▁ d
▁sup ported</w>
▁recor ded</w>
t o▁rs</w>
l et</w>
▁e ating</w>
y cl
me d▁
m o▁n
g e
a h</w>
▁sup porting</w>
▁ref und</w>
▁adv anced</w>
h w
es ti▁
an e▁se</w>
▁t our</w>
▁T able</w>
c andid
S ang</w>
▁continu es</w>
▁Chung ch
us ▁e</w>
s ing
ho▁ me</w>
est ock</w>
c▁l ud
Ar tic▁le</w>
▁del ay</w>
yptoc urr
to▁ ok</w>
m ul
e▁n d
1 1
▁des pite</w>
▁6 th</w>
y in▁g</w>
m▁ e
▁z one</w>
▁res ear
▁neg ative</w>
▁B udd
ym b
d▁ ong</w>
▁me al</w>
▁3 00</w>
p▁ le</w>
c ent▁er</w>
▁d aughter</w>
▁believ ed</w>
▁al tern
▁Su pport</w>
l ate</w>
it or</w>
ep h
con sider
▁kn owledge</w>
w at
i▁ ss
an s▁
▁o r▁
▁f a
m ea▁
ic o</w>
ff er</w>
a▁ sed</w>
▁refl ect</w>
▁pri or</w>
▁manag ed</w>
▁ass ets</w>
unic ip
l ook</w>
is t▁
h ab
J e▁
▁Kor▁ ea</w>
u x
go ing</w>
ag s</w>
ad ed</w>
▁p ack
▁arres t</w>
w▁ oo</w>
ul ly</w>
ag o</w>
▁b rought</w>
▁Econom ic</w>
h ae</w>
ex pan
▁sub way</w>
▁spr ing</w>
▁sev ere</w>
▁occ ur</w>
▁n ine</w>
med ium</w>
h▁ im</w>
a▁s s</w>
▁spen d</w>
▁scre ening</w>
▁f ar
▁arriv ed</w>
▁11 th</w>
hy un</w>
ar▁ ds</w>
▁tick et</w>
▁all ows</w>
o▁n t</w>
▁mea sure</w>
▁Con sidering</w>
y et</w>
su▁ re</w>
re tur
m ▁e</w>
▁Ch ang</w>
sm all</w>
j▁ or</w>
ex pen
&ap▁os▁ ;s</w>
▁bus y</w>
▁201 3</w>
i▁ st
Y oon</w>
H an</w>
▁sett lement</w>
me eting</w>
c ou▁n
A▁ r
A ss▁
▁tr ustee</w>
▁there of</w>
ov ement</w>
c e▁
N or
▁tr ust</w>
▁per f
▁ob serv
▁car eer</w>
vi ously</w>
i▁c s</w>
ig n▁
▁cl im
ist ance</w>
M etropo▁l
▁improv ing</w>
anc y</w>
▁sm art</w>
▁cri ticism</w>
ri age</w>
p▁ ly</w>
be▁c ause</w>
▁pen sion</w>
▁comp uter</w>
in ese</w>
▁res ervation</w>
▁1 5th</w>
tur ing</w>
p ast</w>
ma▁ t
es sive</w>
comp▁ an
▁s ongs</w>
▁bir th</w>
u th</w>
ch an▁ge</w>
▁&qu ▁o▁t;</w>
sum m▁it</w>
c enter</w>
Gyeo▁ng gi</w>
si▁ ve</w>
wh a</w>
Comm itt▁ee</w>
▁conn ection</w>
▁bea uty</w>
▁Indus try</w>
y ed</w>
▁tax es</w>
▁O lymp
M in</w>
8 ▁
▁L im</w>
c▁ ome</w>
▁t o
▁t it
▁f ish</w>
c ing</w>
R us
▁foc used</w>
▁fac tors</w>
▁8 th</w>
r ying</w>
bus▁ iness</w>
ay▁ ing</w>
In v
▁st ep
▁scre en</w>
▁plat form</w>
v id
op ic</w>
com▁ m
app oin
▁revis ion</w>
▁rel ations</w>
▁n orthern</w>
▁R ules</w>
▁Ph il
ft e▁r</w>
▁gen der</w>
j u▁st</w>
▁Fin ance</w>
pos es</w>
ou ldn</w>
et eor
anc ing</w>
N▁ ational</w>
▁reven ue</w>
▁enter prises</w>
resid ▁
ash ion</w>
ac tions</w>
▁dam aged</w>
ver si
tr i▁es</w>
r on
per for▁m
pe t▁
In che▁on</w>
▁tw ice</w>
▁great ly</w>
ag ▁es</w>
l arge</w>
b illi▁on</w>
es t▁ed</w>
a▁n k</w>
▁mark eting</w>
▁Gyeong sang</w>
pro ject</w>
ou s▁
il▁ y</w>
c el
a▁l l
▁coll ect</w>
▁En forcement</w>
iv il</w>
ff s</w>
e ous</w>
b udg
av or</w>
▁pro duce</w>
t w▁
j eong</w>
gre di
ar ing</w>
M E
▁serv ed</w>
▁p aying</w>
produc ▁ts</w>
il m</w>
a▁ de</w>
a▁ in
▁them e</w>
▁c o</w>
i▁ od</w>
en g▁
▁h imself</w>
▁f ru
s ong</w>
o▁ od</w>
n in▁g</w>
in te▁r
com ▁e</w>
G u
▁requ ire</w>
▁ordin ary</w>
▁m os
ech n▁
d eb
▁pres ented</w>
▁develop ing</w>
▁2 7</w>
▁week end</w>
▁dis pat
▁M ex
el ong</w>
th▁ en</w>
em erg
Co▁m m
tur ed</w>
▁suffer ed</w>
▁decre ase</w>
ta ek</w>
it▁ h
ev e▁nt</w>
buil ding</w>
▁m ountain</w>
▁b all</w>
w r▁
u ti▁on</w>
ca▁ se</w>
▁ar ts</w>
▁N ot</w>
jec ▁t</w>
an o</w>
w▁h i▁ch</w>
ot o</w>
▁foc using</w>
iti o▁n</w>
em ▁s</w>
▁fi xed</w>
▁f al
▁complet ely</w>
▁@ ▁-@</w>
tit ude</w>
om y</w>
g ▁u
cal l▁ed</w>
M o▁on</w>
Jap an</w>
▁adver tis
▁s occer</w>
▁announ cement</w>
▁12 th</w>
ic ious</w>
fam ily</w>
M ay</w>
▁sp eak</w>
▁finis hed</w>
▁C or
na▁ m</w>
id ▁e</w>
h ard</w>
▁im possible</w>
▁f alls</w>
▁avo id</w>
i▁n cial</w>
ev▁ er</w>
▁disab ilities</w>
▁M arket</w>
w omen</w>
s▁ ur
mat er
ici a▁l</w>
▁v ill
▁th roughout</w>
▁enter ing</w>
pos iti▁on</w>
elec omm
ag ers</w>
▁un able</w>
▁appro priate</w>
▁J ust</w>
k m</w>
▁war m</w>
▁K won</w>
ili ar</w>
e i▁gn</w>
▁Pen insula</w>
em ory</w>
eco▁n omic</w>
arm ac
▁t ro
▁inc urred</w>
▁ex tre
▁cont ains</w>
h ol</w>
b as▁
▁dro p</w>
▁M ountain</w>
▁I ran</w>
ong ly</w>
▁mean ing</w>
▁consum ption</w>
th qu
t able</w>
o▁ or</w>
ith er</w>
ard less</w>
Sh in</w>
G y▁
▁G im
▁5 00</w>
yp e</w>
wor king</w>
i▁t tee</w>
▁mod ern</w>
▁l i
▁P a
t es</w>
▁sc ore</w>
▁in gredi
▁concer n</w>
ne ed</w>
l ear
ear▁ ly</w>
1▁ st</w>
▁ear n
re p▁
g e▁t</w>
emb▁ ly</w>
D e▁
▁1 4
pres s</w>
i ences</w>
ep tion</w>
devel op▁
ag ▁ed</w>
S ch
▁occ up
k no▁w</w>
form s</w>
▁vol ume</w>
s h</w>
oy ang</w>
j▁ ob</w>
im chi</w>
ch ildren</w>
▁con sider</w>
al ty</w>
▁pre lim
o▁r k</w>
ol v
i▁n ess</w>
ec ti▁on</w>
al ▁s</w>
H an
▁tre es</w>
▁sp ent</w>
▁signific antly</w>
▁effici ent</w>
y ond</w>
▁prof its</w>
st ate</w>
itt e▁e</w>
f ea
en der</w>
y oun▁g</w>
s▁ec ond</w>
pro m▁
l ar▁ge</w>
▁pro por
i▁ ght</w>
f▁ ir
c u▁r
appl ic
▁ch oice</w>
▁U lsan</w>
h e▁r</w>
S outh</w>
sh ow</w>
ro▁ u
fam i▁ly</w>
et ers</w>
ch arge</w>
▁ul t</w>
▁minis ter</w>
w on
i▁ rd</w>
comp a▁n
aw ay</w>
▁y ea▁r</w>
▁u n▁
▁st able</w>
▁1 7th</w>
▁u tion</w>
ar▁ t
▁ser ve</w>
ra is
expec ted</w>
c er▁
ati v▁e</w>
▁l ots</w>
▁kin ds</w>
▁Mot or</w>
▁201 2</w>
pr in
eg et
Se▁ oul</w>
▁m id</w>
▁Ch risti
conf ir
▁e ye</w>
t▁h ▁e</w>
sh ould</w>
v e▁
n ight</w>
e o▁n</w>
▁em p
en om
&a▁ m
▁rev ital
bl ▁e</w>
▁subsid ize</w>
t own</w>
rou▁ p</w>
ilit a▁ry</w>
▁underst anding</w>
▁b i
▁ar ticle</w>
l o▁ng</w>
i xed</w>
ex ecu
▁coun ty</w>
▁chec ked</w>
▁r ose</w>
▁m ean</w>
▁hos ted</w>
or▁ ld</w>
in form▁
et er</w>
di ff
da▁ ys</w>
K yung</w>
▁pi ec
▁in ev
▁foreign ers</w>
n ecess
ch ar▁ge</w>
att le</w>
▁f oot
▁bl ockchain</w>
▁a th
be▁ tw
av es</w>
atis tics</w>
▁H all
y r
v e▁n
pe▁ ople</w>
i re
ain▁ ed</w>
at e▁s</w>
▁proc eed</w>
▁cont est</w>
ye o▁ng</w>
pp er</w>
pol i▁cy</w>
ma▁ in</w>
igh t
J u▁
C it▁y</w>
▁ro oms</w>
▁el ectronic</w>
▁au th
ig ning</w>
en ge</w>
ch ▁ed</w>
ac▁ k</w>
Se o</w>
B usan</w>
▁suffer ing</w>
▁happen ed</w>
▁activ ity</w>
serv ice</w>
r▁ ev
n▁ eed</w>
▁my self</w>
▁k ept</w>
▁&apo▁s ;</w>
w ar</w>
t edly</w>
iter ia</w>
▁res pectively</w>
▁prepar ation</w>
▁j oin</w>
s oon</w>
og s</w>
iz e▁d</w>
i▁ me</w>
d▁ r
▁dis cover
▁confir m</w>
bo ard</w>
K▁ RW</w>
▁perform ed</w>
▁dec line</w>
▁cal cul
P▁ rov
Prov inci▁al</w>
▁w eight</w>
▁ter min
▁gir l</w>
▁c row
▁budg etary</w>
p e▁n
ac qu
▁r ob
▁dev ices</w>
▁d ead
▁N o.</w>
▁B usiness</w>
re fl
oper ati▁on</w>
con cer
b▁ r
art ments</w>
▁&a pos▁;</w>
tro l</w>
n o
eval u
▁caus ing</w>
▁an ti</w>
ye o</w>
l ec
l a
dis c
c itiz
▁expen sive</w>
▁ch ea
p ass
k i</w>
ex hib
e e▁n</w>
c irc
▁W ar</w>
st art</w>
▁t r▁
▁revis ed</w>
▁Un der</w>
▁Com plex</w>
▁2 1st</w>
ch i▁ng</w>
al l▁y</w>
▁w ear</w>
▁ad vis
st▁ it
in ks</w>
im m
e▁c ted</w>
an c▁es</w>
▁sp ea
▁occ urs</w>
r en
o f▁
P en
▁st ressed</w>
▁f illed</w>
▁ -▁@</w>
r un
r it
p ow▁er</w>
oo gle</w>
ign ed</w>
e os</w>
▁for ced</w>
▁Q u
▁I s
▁B raz
ter n▁
n ew
fin a▁ncial</w>
d▁ en</w>
@ ▁-▁@</w>
▁rem ains</w>
▁p re</w>
▁d eep</w>
s ch▁
ro▁ om</w>
in derg
develop ment</w>
a▁ ir</w>
▁ch ann
sti c</w>
id▁ ent</w>
ten tion</w>
sib▁ le</w>
▁wor d</w>
in nov
fo▁ od</w>
det er
▁u t</w>
▁s il
▁prom oting</w>
▁S ou
st at▁
ma j
h wa</w>
g res
en tion</w>
K y
▁war rant</w>
▁br other</w>
g▁ es</w>
▁victi m</w>
▁lear ned</w>
tic ally</w>
m▁ ade</w>
devel ▁
▁foll ows</w>
▁concer ned</w>
▁ tion</w>
m y
incre a▁se</w>
▁hand le</w>
▁bor n</w>
▁Or ganiz
m▁ er</w>
an▁ ds</w>
im port
8 0</w>
▁do g</w>
▁d ang
▁ap preci
▁F air</w>
an ning</w>
▁w alk</w>
▁Un ion</w>
▁2 7th</w>
▁1 6
oc▁ r
il ian</w>
▁win ning</w>
▁del eg
▁H ave</w>
pro▁ duc
e en
c ustom
E n▁
▁fil ms</w>
▁discus sion</w>
be▁ t
ast es</w>
▁anim als</w>
a▁ st</w>
▁recru itment</w>
▁H uman</w>
fo▁ ur</w>
N am
▁ven ue</w>
▁nation wide</w>
▁expl ain</w>
▁Ch eon
▁B i
pan ies</w>
h▁ ee</w>
a▁b out</w>
▁wea k</w>
▁w ind
▁rel ig
▁n ice</w>
▁g ar
▁dis eases</w>
is t▁er</w>
▁st anding</w>
▁ en</w>
bu i▁l
a▁ re
ap s</w>
&ap▁os; ▁s</w>
▁meaning ful</w>
▁g ets</w>
s▁ ocial</w>
par ticip▁
be▁ c▁
ar tens</w>
. 0</w>
▁symp toms</w>
▁dec ide</w>
ay er</w>
▁se em</w>
▁proc essing</w>
▁apar tments</w>
▁P re
ri▁ ed</w>
qual i▁ty</w>
&ap▁os▁; ll</w>
▁leg isl
▁join ed</w>
▁In t
cooper ati▁on</w>
comm od
C l
▁m ale</w>
i ors</w>
▁y oun
▁s i</w>
fi▁ ve</w>
▁th or
▁c over</w>
secu tive</w>
off▁ ic▁ial</w>
f oll▁
cer tif
▁prelim inary</w>
s▁ chool</w>
con tr
Chair m▁an</w>
1 4
▁ro ads</w>
▁H ee</w>
wit h▁in</w>
pp ed</w>
er i▁ng</w>
e ti▁ng</w>
s▁ c
o▁ d</w>
L iber▁ty</w>
▁strateg y</w>
▁h usband</w>
▁expec tations</w>
▁d inner</w>
▁b ag</w>
yn asty</w>
w▁ il▁l</w>
t u▁
p a</w>
d id</w>
ati▁ ons</w>
▁shar ed</w>
▁ex clus
▁W ould</w>
as s▁
ann o▁un▁
M ay▁or</w>
L e▁e</w>
▁l ived</w>
▁innov ation</w>
▁ind ex</w>
g ot</w>
▁depos it</w>
▁Americ a</w>
pp ly</w>
p h▁
mon y</w>
l as▁t</w>
ab ilities</w>
I ▁n</w>
w in</w>
o▁s s</w>
co▁m m
Y ong</w>
N ati▁onal</w>
▁w earing</w>
▁t rou
▁f oods</w>
&ap▁os;▁ ll</w>
▁D ay</w>
▁Ch ang
n orm
f ication</w>
a▁l so</w>
▁tempor ary</w>
▁s un
▁pl ants</w>
▁opport unities</w>
su▁ b
c u▁l
ic a</w>
▁s e▁
wh y</w>
m ut
b ri
2 3</w>
▁mis sing</w>
includ ing</w>
ur i</w>
iv i▁ng</w>
f ur
Y ang</w>
▁de ep
r ent</w>
h a▁lf</w>
construc ti▁on</w>
au g
▁Se jong</w>
re duc
ne▁ w</w>
l▁ ocal</w>
ur s
t▁ es</w>
ou g▁h</w>
d u▁r
▁publ ished</w>
▁broadcas ting</w>
▁V illage</w>
▁C o</w>
ty▁ pe</w>
ga▁ me</w>
c▁ omm
Un iversi▁ty</w>
&▁apo▁s ;s</w>
▁peti tion</w>
▁3 0th</w>
▁1 4th</w>
issu e</w>
d▁ uri▁ng</w>
all eg
Jap ane▁se</w>
▁lea ving</w>
▁in frastructure</w>
▁S ports</w>
v ehic
ti m▁
▁difficul ty</w>
▁decre ased</w>
▁d ay
▁Sing apore</w>
tif icial</w>
▁str ugg
▁conduc ting</w>
▁ad mission</w>
tric ity</w>
s▁ m
oti onal</w>
ch i▁l
M ed
▁med icine</w>
▁e p
▁2 8</w>
w▁ ork</w>
s ocial</w>
o▁c k</w>
id ays</w>
a▁ ve</w>
as▁ s
▁pati ent</w>
▁f ol
▁b aby</w>
th▁ rou▁gh</w>
entur y</w>
devel o▁p
der ing</w>
▁is n</w>
▁2 6</w>
um n</w>
T echn
▁m ulti</w>
▁l iter
▁con tribute</w>
e up</w>
con sum
b ased</w>
▁believ es</w>
w are</w>
der ship</w>
ci enti
r▁ eal
d ra▁
D ay</w>
▁cooper ate</w>
f ast</w>
▁s now</w>
▁L ine</w>
t aining</w>
ed n
▁f ▁
v▁ al</w>
a▁l ly</w>
Th is</w>
▁off er</w>
▁academ ic</w>
▁Pro motion</w>
mon▁ th</w>
▁t en</w>
▁compl etion</w>
▁c at
▁W omen</w>
sy▁ st
sel ▁
o▁ ok</w>
j ected</w>
gen er▁al</w>
fi eld</w>
at▁ ive</w>
▁stor ies</w>
▁n amed</w>
t ains</w>
inv est▁
Y eong
▁subpar agraphs</w>
▁shar ehol
▁H a</w>
um b
i▁ ded</w>
c il
▁v ote</w>
▁K i</w>
▁A I</w>
w▁h ere</w>
u▁ l</w>
s ay</w>
produc ts</w>
o▁ l</w>
▁rec on
▁lawmak ers</w>
u▁ ding</w>
in ally</w>
w▁ ere</w>
wor ki▁ng</w>
offic ia▁ls</w>
b▁l ic</w>
▁N av
r ad
l eft</w>
R e▁
▁broad cast</w>
▁Rus sian</w>
▁9 0</w>
▁s u▁ch</w>
▁comp et
▁ac tor</w>
ou p</w>
j i▁n</w>
&apo▁s ;▁s</w>
▁cor respon
▁F ire</w>
x imum</w>
o g</w>
et in▁g</w>
el ines</w>
atur day</w>
▁cr iminal</w>
▁ach ieve</w>
ur o</w>
sur ▁
ex es</w>
b e▁r</w>
▁lec ture</w>
ma j▁or</w>
le▁ ft</w>
facil iti▁es</w>
uc h
s▁u m
s▁t em</w>
op h
offic ▁
h old</w>
d ata</w>
S a▁m
A c▁t</w>
▁w el
▁loo ked</w>
▁gr and
▁U. S.-
▁Des pite</w>
measur ▁es</w>
iti me</w>
▁K o▁re
▁9 th</w>
▁1 6th</w>
t ot▁al</w>
ot es</w>
m▁ ore</w>
in▁ a</w>
g ▁un</w>
eed ing</w>
app y</w>
▁/ /</w>
t▁h ey</w>
r ▁u
p▁l an</w>
o▁ ur
a▁ ss
▁d ead</w>
▁c alls</w>
ph one</w>
manag ement</w>
est ment</w>
W h▁
▁fe eling</w>
pers on
ig▁ h</w>
con str
▁requ ires</w>
▁inten tion</w>
▁dep uty</w>
▁competi tiveness</w>
▁Em ployment</w>
▁2 5th</w>
oc ation</w>
▁claim ed</w>
s cre
r▁ i</w>
in f
▁techn ologies</w>
▁con ver
z a</w>
s eas</w>
oc▁ al</w>
ef ully</w>
ar ti
N a▁
Ad ministr
▁dis cipl
cl ▁u
▁st opped</w>
▁qu anti
▁di plom
▁P al
n▁ o</w>
▁1 7
si▁ an</w>
ic▁ ation</w>
V ice</w>
▁sing er</w>
▁prof essor</w>
▁back ground</w>
wh e▁n</w>
y▁ ing</w>
▁offic ers</w>
t al▁
r▁ en</w>
a▁n ge</w>
app ed</w>
1 6
▁ex tra</w>
▁acc ur
▁1 .
su▁ m
offic i▁al</w>
l ive</w>
ist en</w>
es us</w>
Ass embly</w>
▁norm al</w>
ok es
f▁ er
evel s</w>
et▁ c.</w>
be▁ st</w>
N ational</w>
▁ul ar</w>
▁l isten
▁j u
▁g old</w>
o▁m en</w>
h alf</w>
all ey</w>
ac ▁e</w>
J u▁ng</w>
▁cr yptocurr
a▁ ting</w>
a es
▁prom oted</w>
▁k il
▁D el
r▁ ef
pu▁ blic</w>
p ati
p al</w>
ic▁ le</w>
en ever</w>
a▁ tive</w>
▁wor ried</w>
▁se emed</w>
▁injur ed</w>
▁Tai wan</w>
em e</w>
▁streng th</w>
▁r ail
▁13 th</w>
pro▁ ve</w>
pro du▁
ch▁ er</w>
b▁ al</w>
amp ion
▁t ▁h
om▁ en</w>
▁or▁ der</w>
▁Wh ite</w>
p▁e op▁le</w>
p ons</w>
ex pla▁
anno▁un▁ ced</w>
▁soldi ers</w>
▁pain ting</w>
il d▁
▁s ides</w>
aem un</w>
A T</w>
▁new sp
▁In ter
vis it▁ed</w>
tr al</w>
su e</w>
in▁ ed</w>
am p▁
1 ,
▁v o
▁tour ist</w>
▁direc tors</w>
ne▁ ed</w>
inter ▁
fin anci▁al</w>
er o</w>
▁wh e▁re</w>
th day</w>
d om</w>
G en
▁sea t</w>
▁c ateg
s▁ ity</w>
o▁w s</w>
o▁ und</w>
eas ▁e</w>
at▁ ing</w>
ac h▁ed</w>
&a▁m p;</w>
▁neg l
▁T ourism</w>
O ffice</w>
&a▁po▁s ;m</w>
▁smartph one</w>
re m▁
em▁ ber</w>
co▁m p
▁Ar t</w>
s pe
ec ution</w>
e t▁her</w>
▁dev ice</w>
▁appl ying</w>
▁An aly
▁2 8th</w>
thea st</w>
it als</w>
a▁r di▁ng</w>
▁Fr ance</w>
▁E un</w>
m id
▁res tor
▁coun ter
wor d</w>
sea son</w>
inc r▁
▁independ ence</w>
ine ering</w>
H w
▁elec tions</w>
▁cl aim</w>
▁ab use</w>
t▁ op</w>
re comm
i▁ ld</w>
▁dr inking</w>
▁dig ital</w>
▁cl assi
j ▁u
▁w e
▁experi enced</w>
we▁ en</w>
g row▁th</w>
ei▁ r</w>
C orpor
▁st yle</w>
▁sh ape</w>
▁gr ounds</w>
▁enter tainment</w>
▁any one</w>
▁F ederation</w>
un d▁
n y</w>
ind▁ us
at trac
▁st re
▁res erv
▁cr iteria</w>
cl a▁ss</w>
▁w all</w>
▁acc ept</w>
▁Y i</w>
yph oon</w>
re p▁or
re g▁
or d
ne ung</w>
n or
▁r ain
▁applic ants</w>
▁P ort</w>
▁In st
▁1 ,000</w>
il ing</w>
1 7
▁tick ets</w>
▁lun ch</w>
▁en ded</w>
▁R ev
c ulture</w>
▁respon d</w>
▁inter esting</w>
▁S ong
▁B ased</w>
▁autonom ous</w>
stitu tional</w>
re at</w>
r ig▁ht</w>
e▁ un</w>
eed s</w>
▁sud denly</w>
▁m ag
▁dou ble</w>
▁dis pl
w ee
in k
est a▁bl
w▁ a▁s</w>
s ex
e▁n tial</w>
ex pl▁
2 7</w>
▁rul es</w>
▁anim al</w>
▁2 6th</w>
intro duc
Se ong
▁sugg ested</w>
▁favor ite</w>
▁app earance</w>
s onal</w>
▁syst ems</w>
▁mer ch
▁guarant ee</w>
▁exchang es</w>
▁c ▁
o▁r th</w>
f▁ it</w>
cl ose</w>
▁shar es</w>
▁ren ew
▁oper ator</w>
▁con ▁
z z
t a▁l
o▁ p</w>
off▁ icia▁l</w>
en t▁ed</w>
▁caus es</w>
su▁ pport</w>
re al
enom en
con tr▁
▁Mat ters</w>
p en</w>
la▁r gest</w>
A s▁
▁farm ing</w>
▁Y ang
ou▁ t
ar ed</w>
▁l iqu
▁aff ected</w>
▁Environ ment</w>
c▁ on▁
▁Represent ative</w>
unicip al</w>
os ▁e</w>
S S</w>
▁volunte er</w>
▁some times</w>
▁sam ple</w>
▁comm ission</w>
▁ass essment</w>
▁Lea gue</w>
op port
▁beg in</w>
und er▁
ro▁ ad</w>
m as</w>
am b
▁w il▁l</w>
▁judg es</w>
▁S pea
▁G w
in▁ v
e▁ ad</w>
si x</w>
oper ation</w>
investig ation</w>
econom y</w>
den uclear
▁wr it
▁urg ent</w>
▁sol ution</w>
por t▁ed</w>
m i</w>
at h</w>
G▁yeong gi</w>
▁coun ties</w>
iv▁ er
ess▁ es</w>
N▁ ew</w>
▁up on</w>
▁reti rement</w>
▁for ec
▁critici zed</w>
▁O ther</w>
▁L ife</w>
ev e▁n</w>
be▁tw een</w>
▁mul ti
▁fun ctions</w>
▁fea tures</w>
▁Ch urch</w>
n a</w>
▁eff ort</w>
i▁ sh
grow th</w>
eg▁ al</w>
▁r ent</w>
me an
for c
ateg y</w>
▁sh op</w>
▁E specially</w>
proc ess</w>
p ay</w>
l aun
▁rep air</w>
▁ha ven</w>
▁cam era</w>
rec▁ e
▁r i</w>
▁mach ine</w>
▁cons erv
▁Ger man</w>
o▁n ly</w>
ci v
ag ement</w>
a f▁f
▁grad ually</w>
ti▁ ci
og▁ y</w>
am ic</w>
▁t ask</w>
▁pus h</w>
pol i▁ce</w>
im pl
e ducation</w>
▁p rec
▁design ation</w>
▁Un til</w>
▁J eon</w>
s ince</w>
f un▁
▁celeb r
▁Reg arding</w>
▁Fac ebook</w>
r▁ et
n at▁ional</w>
g en▁
fac ▁
ac ted</w>
&▁apo▁s ;</w>
▁represent atives</w>
▁offic es</w>
▁charac ters</w>
s▁ y
ar e▁as</w>
Ar ticle</w>
▁st ead
▁cap acity</w>
▁Dep uty</w>
s o▁n</w>
o x</w>
o ong</w>
ev e▁r</w>
ang ed</w>
▁execu tives</w>
th us
g▁ o</w>
diff▁ ic
ad ded</w>
▁fig ure</w>
▁c ell</w>
P er
u ps</w>
▁sc ale</w>
ill a</w>
as ion</w>
I m
▁cos me
wi▁th out</w>
ta i▁n
p▁ s</w>
ec ▁t</w>
ad diti
▁d rug</w>
▁Con f
ic ide</w>
▁m il
▁jud ge</w>
▁chec king</w>
▁ac tors</w>
▁K y
pe al</w>
c ultur▁al</w>
b i
▁rem ember</w>
▁U S
ul atory</w>
per iod</w>
i▁ tion</w>
in▁ es</w>
f▁ or▁
be▁c aus▁e</w>
b i▁ll
U n▁
▁guid ance</w>
t▁h em</w>
o▁ ther</w>
ic h
▁or ders</w>
▁app ear</w>
▁S ea</w>
f all</w>
adv ant
S▁ .</w>
▁g ives</w>
ru gs</w>
c ong
a i
▁ab ol
▁H eung</w>
l▁ ot</w>
er ies</w>
en d▁ed</w>
▁par liam
▁bas eball</w>
y▁ eon</w>
sum mit</w>
s o
e b▁
vis▁ it</w>
pe o</w>
il▁l ion</w>
fil m</w>
at ures</w>
O h</w>
▁w a▁s</w>
▁v ulner
▁phot ograp
▁o ▁n</w>
▁fin ally</w>
th a▁n</w>
re▁ as
i ans</w>
e▁r ed</w>
build i▁ng</w>
a h
ea s▁ed</w>
▁re view
▁on es</w>
r▁ ec▁
▁v ia</w>
▁con st
▁cl early</w>
w▁ ell</w>
w a▁r
pos▁ ;t</w>
Comm ittee</w>
Bus▁ an</w>
▁s in▁ce</w>
▁dis play</w>
z be
su s</w>
pr▁ om
em pl▁
af te▁r</w>
Un ive▁r
Tr ans
▁pl astic</w>
▁f an</w>
▁con secutive</w>
▁S w
w at▁er</w>
t▁ ers</w>
m▁ arket</w>
m i▁n</w>
▁sec ured</w>
▁mea t</w>
▁l isten</w>
▁ad d</w>
▁In dia</w>
if th</w>
▁wal king</w>
▁W oo</w>
w ould</w>
pol ice</w>
ipp ines</w>
ho▁ w</w>
ed ding</w>
▁el se</w>
tiv ▁e</w>
t en▁
oy al</w>
b ud
▁sl ow
▁curr ency</w>
c alled</w>
▁sen ding</w>
▁ob tain</w>
▁ex cluded</w>
▁ch icken</w>
▁2 3rd</w>
ro▁ up</w>
iti gation</w>
inform ati▁on</w>
h osp
ent ually</w>
di r▁ec
M an
▁prac tic
▁bal ance</w>
work e▁rs</w>
t un
ant i</w>
Je ju</w>
▁re ducing</w>
▁Canad a</w>
▁2 4th</w>
ver ▁y</w>
on ce</w>
S ong</w>
per form▁
form er</w>
foll owi▁ng</w>
d▁ ec
d e▁d</w>
ar r▁
▁trans l
▁tal king</w>
▁p e
▁m oun
▁interpre ted</w>
▁complain ts</w>
▁be yond</w>
s▁ ayin▁g</w>
pr▁ iv
og ue</w>
m er
▁sub st
▁continu ously</w>
▁S tr
pr os
▁elec tricity</w>
▁M alay
se▁l f</w>
l ove</w>
er ate</w>
▁sign s</w>
▁p it
▁m e▁
▁bri ef
yong yang</w>
▁pro per</w>
▁R oh</w>
p▁u t</w>
perform an▁ce</w>
pa▁r t</w>
m ilita▁ry</w>
em plo▁
aj or</w>
▁surr ounding</w>
▁mean time</w>
▁acc um
vi▁ ew</w>
on▁ d</w>
l a▁nd</w>
indus t▁ry</w>
if f</w>
f a▁m
ar eas</w>
▁T em
p .</w>
ou te</w>
ot▁ her</w>
e▁c t▁ed</w>
ci a▁l</w>
ati z
L ea
▁cr imes</w>
t▁ im
pos ▁ed</w>
p i▁ng</w>
il▁ d
a▁ ch</w>
▁re pres
▁expen dit
rel ated</w>
p▁ re
i▁ zed</w>
e f▁f
cl ▁e</w>
K▁or e▁a</w>
▁st one</w>
▁gu ide</w>
▁e x</w>
▁correc t</w>
▁Y ou
▁C re
c▁ ase</w>
c e▁r
▁as king</w>
▁G oogle</w>
▁B ri
pr ice</w>
or ig
l▁ aw</w>
kn o▁wn</w>
eteor ological</w>
an▁ s
Ch eong
▁sou thern</w>
▁c o▁n
u▁n der</w>
t o
stit u▁te</w>
i▁s it</w>
is cal</w>
dro gen</w>
▁Austral ia</w>
th i▁rd</w>
su▁ p
m▁ ed
i able</w>
d on</w>
S un</w>
▁civ ic</w>
ti▁ cs</w>
pl▁ ay</w>
em o▁ny</w>
e ol</w>
▁experi ences</w>
▁T wo</w>
y a▁ng</w>
t ar
▁suspen ded</w>
ong ol
c▁ r
c ar▁
▁ship ping</w>
▁t ree</w>
▁st and</w>
▁b ut
▁Th anks</w>
y w
un t▁il</w>
te▁ st</w>
▁imm igr
▁del iver</w>
s oci
A ff
▁wor ▁
▁viol ation</w>
▁ingredi ents</w>
▁M yung</w>
▁B yung</w>
id enti
i ance</w>
au d</w>
K i</w>
▁s quare</w>
▁dep artments</w>
or ation</w>
Tu be</w>
S pec
▁s ymb
▁cou ple</w>
comm unic
Wh en</w>
▁2 2nd</w>
prov i▁de</w>
ig ▁n</w>
ec h▁
co hol</w>
ag re▁
▁th eater</w>
▁b oy
▁S ocial</w>
ot hing</w>
law mak
W on</w>
S p▁
M ar▁
J ang</w>
▁u ses</w>
▁u pper</w>
▁trad ing</w>
▁ma ximum</w>
▁liv estock</w>
▁i ce</w>
t▁ ax</w>
or e
mon ey</w>
el ec▁
de▁ v
con n
activ ities</w>
▁view ers</w>
▁semiconduc tor</w>
▁res pect</w>
in ate</w>
entr▁ al</w>
b ack
▁deb t</w>
us eok</w>
res p▁
h▁ ard</w>
fi▁ re</w>
fac tion</w>
el ess</w>
d ents</w>
atten ti▁on</w>
F ed
▁purch ased</w>
▁dead line</w>
▁3 5</w>
s al▁es</w>
lo w▁
id e▁d</w>
▁youn ger</w>
▁prac tical</w>
▁neigh bor
▁g ather</w>
▁for ces</w>
▁Mon day</w>
m other</w>
g i▁
d ate</w>
an▁ ies</w>
G overn
2▁ nd</w>
▁pro b
perform ance</w>
p op</w>
be▁t we▁en</w>
ar ks</w>
▁altern ative</w>
re▁s s</w>
ok yo</w>
▁sub jects</w>
▁s ource</w>
▁reg ardless</w>
▁accep ted</w>
pur ch
ci▁ l</w>
V iet
&▁qu ▁ot▁;</w>
▁r ich</w>
u▁m p</w>
ell o</w>
bl ig
b a▁ck</w>
ad or</w>
T C</w>
▁t ext</w>
▁law s</w>
▁exc essive</w>
▁el ected</w>
op en</w>
n at
m ▁u
lea d▁er</w>
e k
&qu o▁t▁;</w>
▁men u</w>
▁m ot
▁fres h</w>
▁fir m</w>
▁d re
th o▁se</w>
lo b▁al</w>
i▁n g
it ting</w>
e▁ al
ac ▁h
▁Spea ker</w>
t▁ eam</w>
s al
pre▁ ss
ev e▁ry</w>
en▁ g
▁expres s</w>
▁dam ages</w>
▁Prosec utors</w>
▁Exper ts</w>
s atis
con trac
▁expl an
▁201 0</w>
som e▁
prom o
necess a▁ry</w>
e▁ ven</w>
employ ment</w>
▁re porter</w>
▁c ore</w>
pos ing</w>
gr y</w>
a▁ ti▁ons</w>
▁s ister</w>
▁l ose</w>
▁Y outh</w>
▁D o
qu ar
ar ity</w>
▁integr ated</w>
▁con struc
ca▁ me</w>
Pr▁ ov
3 0
▁Gyeong sang
s▁h ould</w>
d riv
Un iversity</w>
▁m ental</w>
▁int elligence</w>
▁Am id</w>
w▁h ile</w>
ist an</w>
ass es</w>
▁law suit</w>
m▁ s</w>
iz i▁ng</w>
g ive</w>
for t</w>
f ou▁nd</w>
el ection</w>
b ok</w>
3 1</w>
▁kinderg artens</w>
▁M ovement</w>
▁E very
ro ad
e▁s s▁
▁t own</w>
▁t een
▁pre fer
▁plac ed</w>
▁inst all</w>
▁cryptocurr ency</w>
wor▁ k</w>
t▁ en</w>
s ome
l e
fl o▁or</w>
e▁c k</w>
ci ous</w>
▁reg ister</w>
y▁ le</w>
sh▁ ow</w>
on ally</w>
er n▁or</w>
c e▁d</w>
▁sc en
am ing</w>
▁pr ison</w>
▁dist ance</w>
▁Sm all</w>
▁M eteorological</w>
▁E ach</w>
os s
ed ing</w>
ch i▁ef</w>
▁pun ishment</w>
▁I T</w>
w ant</w>
exp▁ ec▁ted</w>
a▁ ke</w>
M i▁n
▁wr ote</w>
▁w it
▁l ines</w>
▁dis tributed</w>
▁M iddle</w>
tis h</w>
t ;</w>
it▁ ional</w>
201 9</w>
▁ref ug
▁col ors</w>
▁ar rive</w>
▁Y u</w>
t▁ ee</w>
s▁ e
op ment</w>
h el▁d</w>
▁passeng ers</w>
▁notif ied</w>
▁c o▁m
▁approv ed</w>
t▁h s</w>
c▁ om▁
are un
▁p an
▁n ames</w>
▁mos tly</w>
▁establis hing</w>
▁com prised</w>
▁J esus</w>
p▁ ay</w>
▁see ing</w>
▁m emory</w>
▁inv est</w>
▁conn ected</w>
ur▁ al</w>
t al</w>
qu ir
l in
tu ps</w>
d es▁
ag g
▁wat ched</w>
▁rem ain</w>
▁join tly</w>
▁individ uals</w>
▁P ri
▁N a</w>
▁ itan</w>
b▁ an</w>
2 8</w>
▁wor ker</w>
▁con tr
▁Indones ia</w>
w in
st a▁n
ea▁ d</w>
▁S ch
us▁ ic</w>
h um
S p
▁techn ical</w>
▁pres entation</w>
▁p ▁
v e▁ry</w>
sen i▁or</w>
s epar
ic▁ y</w>
i et</w>
c anc
N am</w>
2 00</w>
▁res idential</w>
▁f ashion</w>
▁applic ations</w>
s▁ erv
i▁ nd</w>
inc es</w>
d el▁
▁ev ening</w>
▁R ule</w>
▁In formation</w>
▁At tention</w>
▁2 9</w>
us ual</w>
p yeong</w>
eas ant</w>
am ily</w>
Gover n▁or</w>
▁s yn
▁frequ ently</w>
▁Rep ublic</w>
k e▁
isher ies</w>
b a▁ll</w>
H ee</w>
▁war ning</w>
w ol</w>
t▁ ern
ri er</w>
k e▁d</w>
ap▁ p
▁M in
▁In surance</w>
▁C r
i▁ se</w>
▁pot ential</w>
▁p u
▁histor ical</w>
▁Fr iday</w>
sh ▁e</w>
o▁u gh</w>
let es</w>
l abor</w>
J▁ ae</w>
▁pre t
▁emphas ized</w>
▁H ospital</w>
▁B as
▁201 1</w>
aud i</w>
▁se x</w>
▁Mus eum</w>
w o▁o</w>
resp on▁
oc king</w>
at tr
ar▁ tment</w>
201 6</w>
▁exc eed</w>
▁H otel</w>
st▁ ud
▁sal ary</w>
kn own</w>
ab led</w>
E D</w>
▁th ous
▁independ ent</w>
▁com posed</w>
▁at tract</w>
▁Coun ty</w>
pro jec▁ts</w>
ap ers</w>
▁discus sed</w>
▁E E</w>
re▁ al</w>
f▁ ac
f ar</w>
d uring</w>
be t▁w
a▁ y
av el</w>
G overnment</w>
▁design ate</w>
▁C oll
vol un
sus p
o oting</w>
clud e</w>
▁v eget
▁dem ocr
▁On ly</w>
s▁ pec
me e▁
lis t</w>
j ection</w>
est▁ ic</w>
ea▁r s</w>
com p▁l
▁trans action</w>
▁t ired</w>
▁ph enomen
t▁ io▁n</w>
thus i
tak ▁e</w>
rec e▁
m▁ an
c amp
▁recover y</w>
▁l isted</w>
▁am end
w▁h y</w>
v en▁
ub s</w>
investig ati▁on</w>
g u▁
am ong</w>
ME s</w>
▁dis crim
as ts</w>
▁r ural</w>
m▁ in
C o▁
▁th er▁e</w>
▁re ply</w>
▁fl ex
t▁ ural</w>
sh op</w>
im po▁r
f ic</w>
e▁ ong</w>
al l▁ed</w>
▁e co</w>
▁conc ept</w>
w ise</w>
w a▁rd</w>
id den</w>
ed y</w>
comm itt▁ee</w>
ac coun
▁ ju</w>
s al</w>
p un
p aid</w>
▁refl ected</w>
▁finis h</w>
s afe▁ty</w>
a▁t a</w>
▁pl en
▁p il
▁Kor eas</w>
pol i▁
O ffic
▁subsid y</w>
▁s ave</w>
▁reg ulation</w>
▁out door</w>
▁h ard
▁dr aw</w>
serv ▁
f eel</w>
ead quarters</w>
af▁ ter</w>
▁t el
▁r an</w>
▁exten ded</w>
▁al bum</w>
tea▁ m</w>
l a</w>
adem y</w>
▁s pon
▁des cri
▁co ast</w>
▁ar tificial</w>
w age</w>
o▁ v
o▁ ffic
na▁ me</w>
inter e▁st</w>
h▁ a▁s</w>
ar ded</w>
an am</w>
▁f air
▁Th ose</w>
▁5 G</w>
per i▁od</w>
▁un i
▁sh r
▁entr ust</w>
▁effici ency</w>
pl a▁n
▁re porting</w>
▁enh ance</w>
▁en try</w>
ol l</w>
fi▁ nd</w>
▁fal se</w>
▁b ic
i o▁us</w>
es ▁e</w>
Gyeong sang
▁enjoy ed</w>
▁Fr ench</w>
▁F l
und am
sit u▁
oh ang</w>
f t▁er</w>
com▁ p
▁sh ou
shi▁ p</w>
fac ilities</w>
cons ult
▁id eas</w>
▁dest ro
o f
c▁ alled</w>
Pro▁v ince</w>
▁with draw
▁min ute</w>
▁camp aign</w>
pr o▁m
is ure</w>
en vir
diff▁ er
chit ec
ail and</w>
▁tit le</w>
▁syst em
▁run s</w>
▁l evels</w>
▁B TS</w>
k ▁e</w>
incl▁u di▁ng</w>
g▁ o
and al</w>
D is▁
B u
A hn</w>
▁bro ken</w>
w▁h at</w>
thqu ake</w>
n ecessary</w>
i ents</w>
h ou▁se</w>
▁draw n</w>
▁con cluded</w>
▁I tal
repres ent▁
int e▁n
g▁ ood</w>
In t
▁t ak
▁be hav
dev e▁l
▁import ance</w>
▁del icious</w>
▁alleg ations</w>
d om▁
Ch in
▁fl ow</w>
f▁or m
ec ▁h
S ou
&▁a p▁os;s</w>
&▁a pos▁;s</w>
▁fl o
tw▁ o</w>
med ic▁al</w>
fr on
fo▁r m
b enef
▁st ations</w>
▁grad es</w>
▁canc el</w>
▁Serv ices</w>
▁Mex ico</w>
oll owing</w>
j o</w>
g▁ r
Manag eme▁nt</w>
Coun c▁il</w>
▁trans ferred</w>
stud ▁
j obs</w>
emp ted</w>
ea l▁th</w>
d▁ le</w>
do▁ es</w>
am m
▁l in
▁fir ms</w>
▁cam p</w>
▁bl ue</w>
▁S ub
row n</w>
it ch
enter ed</w>
cr aft</w>
at in▁g</w>
▁over come</w>
▁S aturday</w>
u▁n e</w>
m i▁t</w>
gov▁ ern
ci v▁
ac hing</w>
S e▁r
2 6</w>
▁sent ence</w>
i e▁d</w>
201 7</w>
▁n om
ol d
▁sl ightly</w>
▁rece ives</w>
▁r um
▁equ ipped</w>
▁comm itted</w>
qu esti
it es</w>
e w▁
an aly
▁ma il</w>
▁Ko▁re a</w>
pon ent</w>
cont▁ in
bir th</w>
▁vulner able</w>
▁sit u
▁inter ests</w>
▁ess ential</w>
▁M e
▁Hy e</w>
u▁ sed</w>
t▁h ere</w>
t ingu
o d▁
e▁n t▁
2 5
▁tas ks</w>
▁sup plem
▁doc tor</w>
▁S oo</w>
▁On ce</w>
▁G oyang</w>
w a
o▁ u</w>
e▁ ld</w>
Gye on▁g
▁cour ses</w>
▁A fr
s▁h o▁uld</w>
s ized</w>
om peo</w>
M▁ ay</w>
G er
▁m ▁
▁disp ute</w>
re▁ sid
i▁n v
ea▁ ce</w>
au th
ain t
Pa▁r ty</w>
▁th anks</w>
▁stor age</w>
▁quanti ty</w>
▁2 9th</w>
n e▁ss</w>
i▁c es</w>
▁nat ur
▁aw are</w>
▁aim ed</w>
▁H er
▁Be fore</w>
med ia</w>
in▁ al</w>
▁out standing</w>
▁h und
▁corpor ations</w>
z ▁
S ▁u
▁tre ated</w>
▁entr ustment</w>
▁K T</w>
se ok</w>
pe o▁ple</w>
foll owing</w>
as t▁er</w>
S m
▁is land</w>
▁im posed</w>
▁W est</w>
▁Super visory</w>
ut ers</w>
par t
on er</w>
it▁ e</w>
i eld</w>
app ear
▁w i▁th</w>
▁de ems</w>
s ol▁
pe opl▁e</w>
par tic▁
in▁ g
en s
adminis tr▁
G un</w>
▁pus hed</w>
▁Wh ich</w>
tric ts</w>
s ayi▁ng</w>
perc e▁nt</w>
pec ts</w>
int▁ er
f ying</w>
an y▁
activ ▁
▁tr ack</w>
▁encour age</w>
▁en forcement</w>
▁ac commod
v o
ri c</w>
our self</w>
m u▁ch</w>
j ae</w>
ib ility</w>
f arm
C▁h o</w>
Ass emb▁ly</w>
▁sp ot</w>
▁G ames</w>
st ore</w>
he▁ e</w>
H igh</w>
C or
▁kinderg arten</w>
▁e d
▁discus sions</w>
techn olo▁gy</w>
in▁ ess</w>
&q▁u o▁t▁;</w>
▁vid eos</w>
▁recomm endation</w>
▁com par
ut u▁re</w>
u ce</w>
ow e▁r</w>
on l▁y</w>
m illion</w>
im p
con s▁
Metropo▁l itan</w>
▁ass ociation</w>
▁ap p</w>
▁Phil ippines</w>
▁Kak ao</w>
th▁ ere</w>
fr o▁nt</w>
av o
P yeong
▁deb ate</w>
▁ass ault</w>
▁adver ti
w a▁y</w>
ib▁ le</w>
d▁ es
▁trans actions</w>
▁hel ps</w>
▁Analy sts</w>
stud ents</w>
st a▁r
pursu a▁nt</w>
l a▁te</w>
j a</w>
f▁ r
as ters</w>
▁propor tion</w>
▁lea dership</w>
v ious</w>
u tions</w>
rec ogn
m▁ ake</w>
le▁ ad</w>
emb ers</w>
al o▁ng</w>
▁shar p</w>
▁mus eum</w>
▁hel ped</w>
▁com fortable</w>
▁2 ,
sign ific
et▁ ing</w>
3▁ rd</w>
▁sh ot</w>
▁s tic
▁p ort</w>
▁judg ment</w>
▁eff ec
ind ivid
iber ation</w>
distr i▁ct</w>
L im</w>
▁th er
▁resol ve</w>
res ear
f o▁reign</w>
▁t u
▁mod els</w>
▁lic ense</w>
▁acc used</w>
u▁ de</w>
s ent
ret a▁ry</w>
r ban</w>
prov ince</w>
ourn al
olo▁ g
mus ic</w>
er▁ gy</w>
d ev▁
c a▁r
ad y</w>
3 5</w>
▁man ner</w>
▁Hall yu</w>
och o</w>
k▁ er</w>
19 ▁
▁s etting</w>
▁m ixed</w>
▁Sun day</w>
b it</w>
K▁ or▁
▁S ohn</w>
ir ls</w>
hy u▁n</w>
for ei▁gn</w>
b al
▁shor t
tor ▁s</w>
iv ision</w>
itiz en</w>
f re
▁tim ▁e</w>
▁C ar
▁Ap ple</w>
pr e▁ss</w>
a▁ pp
4 5</w>
▁suspen sion</w>
▁hom es</w>
▁&q▁u o▁t;</w>
ol es
j oy</w>
f am▁
cl ass</w>
E un</w>
▁s af
▁Star ting</w>
▁B aek
z ▁ed</w>
res ol
ell ec
ed om</w>
S ing
J une</w>
3 2</w>
▁pri ority</w>
▁mar ried</w>
▁l oved</w>
▁con v
▁compet ent</w>
w▁ in</w>
h e
for ce</w>
che o▁n</w>
b e▁rs</w>
aw ei</w>
ar ound</w>
▁sent enced</w>
▁ex tent</w>
▁comm emor
▁bus es</w>
▁Chr ist
s ee
n▁ el</w>
hy e</w>
ex ec
en▁ ds</w>
edn esday</w>
b eg▁
P▁ar ty</w>
▁rap id</w>
▁ob jec
▁m ur
t om
oc▁r atic</w>
m ob
P ubl▁ic</w>
1▁ 0</w>
▁g un</w>
▁1 0,000</w>
tric ▁t</w>
t alk</w>
p oint</w>
f ind</w>
J▁ ap
▁rea dy</w>
▁attrac ting</w>
▁star s</w>
▁st ress</w>
▁proced ure</w>
▁convers ation</w>
ti cles</w>
f ans</w>
bl ing</w>
▁ran ked</w>
▁he▁ ld</w>
▁happ en</w>
▁fl owers</w>
▁ad ding</w>
ul▁ ts</w>
t▁ h▁
s▁ ai▁d</w>
s cor
o b▁
ire ments</w>
in come</w>
b a▁
▁stat utes</w>
▁hol idays</w>
▁argu ed</w>
exper ien▁ce</w>
▁ag ed</w>
re po▁r
is▁ ts</w>
▁resc ue</w>
▁f oot</w>
▁att ack</w>
▁Med ical</w>
▁K OS
▁Ch ildren</w>
ea▁ sed</w>
bre ak
G w▁
▁o kay</w>
▁c entury</w>
su n</w>
sti t▁
co▁m pany</w>
Jap▁ an</w>
▁p sych
▁min im
▁expendit ure</w>
▁contrac ts</w>
▁concentr ation</w>
pr ene
manag▁ ement</w>
j eon</w>
com b
▁Cheon an</w>
▁Budd h
▁200 9</w>
r▁ ep
res ear▁ch</w>
me et</w>
a▁ tio▁ns</w>
activ iti▁es</w>
O f▁f
J eong</w>
2 9</w>
▁wea k
▁ob tained</w>
▁mar riage</w>
▁child care</w>
ol ic</w>
m ent▁al</w>
▁ev entually</w>
▁dr unk</w>
▁com ▁
▁&ap▁os ;</w>
u an</w>
t▁ ies</w>
s s</w>
ic a▁l</w>
e▁r ▁e</w>
d e▁s
; ▁
▁sus pect</w>
▁m ark</w>
▁X i</w>
sa▁ y</w>
fo▁r mer</w>
armac eu
M a▁r
D evel
▁was n</w>
▁str ongly</w>
▁r oute</w>
▁l ov
▁fin ding</w>
▁car eful</w>
ti ous</w>
per ty</w>
n ews</w>
i▁ str
is s▁u
h eal
an▁ n
▁su itable</w>
▁ab s
us ▁t</w>
ra▁ p
pres i▁d
op ol
at▁ or</w>
0 .
▁m ayor</w>
▁bel ong
▁applic ant</w>
ur ▁e</w>
rece iv▁ed</w>
r ▁e</w>
i ers</w>
d an▁ce</w>
c and
am ▁es</w>
▁f ight</w>
▁certif ication</w>
▁ab▁ out</w>
▁S audi</w>
▁Organiz ation</w>
u al▁ly</w>
t a</w>
s▁h all</w>
port ers</w>
li o▁n</w>
l e▁d</w>
it e▁d</w>
ion a▁l</w>
ic ▁s</w>
I N
C▁ ity</w>
▁prosec utor</w>
▁poll ution</w>
n u▁
ari ffs</w>
al ize</w>
air▁ s</w>
▁rem ov
▁lat est</w>
▁bott om</w>
▁N et
with out</w>
tra▁ de</w>
probl em</w>
in o</w>
dec id▁ed</w>
bo▁ th</w>
a▁r ge</w>
Y ong
▁dis hes</w>
▁c l▁
▁b ed</w>
pr i▁ce</w>
ic e▁s</w>
e▁l s</w>
c ard</w>
b oth</w>
Jap▁ anese</w>
Gover ▁n
▁l itigation</w>
▁emerg ing</w>
su gg
ri v▁
p▁os e</w>
b▁ ed</w>
W or▁ld</w>
▁pro hib
▁c ooking</w>
re ds</w>
r at
p .m.</w>
head qu
emb e▁r</w>
ation a▁l</w>
▁confir mation</w>
w i▁n
it oring</w>
av ing</w>
ar▁ ty</w>
▁plan e</w>
o▁ ffice</w>
g ang</w>
clus ion</w>
Prov▁ ince</w>
J uly</w>
▁m ob
▁arti cles</w>
▁M ay
x es</w>
ver n
v i▁ng</w>
t echn▁
st age</w>
i▁ d</w>
el e▁c
F A</w>
▁st ar</w>
▁s eek</w>
▁judg ed</w>
▁car rying</w>
▁N e
▁C C
z en</w>
ul▁ tural</w>
t og▁
E conom
C o</w>
i▁ re</w>
h▁ it</w>
▁suspic ion</w>
▁g olf</w>
▁d e▁
▁Ac tor</w>
wor▁ ld</w>
u▁ ed</w>
re▁ qu
proc e▁ss</w>
g y
b▁ as
▁w ages</w>
▁tr uth</w>
▁p utting</w>
▁ex ▁
▁Pyeong taek</w>
ugg ish</w>
b▁ ers</w>
▁am id</w>
lik ▁e</w>
ij ing</w>
fac il▁
bor n</w>
b us</w>
▁inconven ience</w>
t▁ ions</w>
hous eh
at e▁
al i
▁ch em
▁Ear lier</w>
un g▁
spec ial
or▁ ts</w>
mir ae</w>
ir ation</w>
f it</w>
f air</w>
ea ted</w>
T▁ r
I sl
Gyeong g▁i</w>
▁prem ium</w>
▁19 7
us h
r a</w>
is▁ m</w>
ag▁ ainst</w>
▁strength ening</w>
▁rea son
▁cosme tics</w>
▁O kay</w>
st and</w>
p m</w>
indus ▁
in t</w>
exc e▁
at e▁ly</w>
ac▁ c
▁politi cs</w>
▁l i▁
▁fail ure</w>
▁c alling</w>
▁atten ding</w>
▁Bri tish</w>
m et</w>
et te</w>
ec te▁d</w>
e ering</w>
Gy▁ eong
▁b ull
▁M y
▁H eadquarters</w>
▁D oes</w>
e▁ st▁
▁t ea</w>
▁sec tors</w>
▁p ower
▁Gang neung</w>
la▁ ted</w>
ic ed</w>
ea l▁ed</w>
Ch▁ inese</w>
6 5</w>
▁dec l
▁car ds</w>
▁I l
▁20 s</w>
r ights</w>
for ▁e</w>
child r▁en</w>
S h▁
D ef
Ad minis
▁fin ance</w>
▁Tem ple</w>
z es</w>
g ence</w>
b▁ efo▁re</w>
as an</w>
▁r ule</w>
▁discipl inary</w>
▁announ ce</w>
at▁ ch</w>
am▁ p;</w>
I T</w>
▁pass ing</w>
▁disclos ure</w>
▁achiev ed</w>
▁Jeoll a</w>
st o▁ry</w>
iz ▁e</w>
c a▁l
Sam su▁ng</w>
1▁ 00</w>
▁tre as
▁sp irit</w>
▁recogn ition</w>
▁ac compan
m▁ ark
increas ▁ed</w>
e t▁ed</w>
al ent</w>
a ight</w>
▁t ests</w>
▁st ated</w>
▁h urt</w>
▁b ▁y</w>
▁b ags</w>
sel ect▁ed</w>
nam ent</w>
ip e</w>
ang ing</w>
a ff▁
T A</w>
▁subpar agraph</w>
▁main tained</w>
succ ess
ro l</w>
m is▁
l ab▁or</w>
az a</w>
▁reg ard</w>
▁affili ated</w>
▁Braz il</w>
y▁ o</w>
ro▁u gh</w>
reg ul▁ar</w>
ou▁r s</w>
ed ed</w>
H a</w>
▁F ollowing</w>
v ill
num ber</w>
h ealth</w>
ent a▁ry</w>
c▁ ar</w>
be▁c▁ ause</w>
Kor ea▁n</w>
9 0</w>
▁M ongol
u▁ tion</w>
s un▁g</w>
p o
f ail
▁val ues</w>
▁Th ree</w>
tiv ity</w>
ol▁ ds</w>
me▁ et</w>
k il
enti ment</w>
ax y</w>
P▁ op</w>
▁di verse</w>
ent ally</w>
ch e▁
a▁n n
am ework</w>
▁th ank</w>
▁stud ies</w>
▁spe ech</w>
▁s a▁id</w>
▁predic t</w>
▁comm ents</w>
un t</w>
or d▁
id ity</w>
ic i▁al</w>
h o▁l
g▁ lobal</w>
Chin e▁se</w>
▁smo oth</w>
▁cl in
▁attrac ted</w>
▁An other</w>
▁2 5
tiv ▁
t ook</w>
si on
s a▁n</w>
od ies</w>
g i▁ve</w>
en ▁s</w>
e very
budg et</w>
Je oll
▁low est</w>
▁guid elines</w>
▁canc eled</w>
▁allow ances</w>
y o▁ng</w>
ul l</w>
re▁c e
onom y</w>
m il
h w▁an</w>
d ea▁
c eleb
▁b u▁t</w>
▁b ills</w>
v ac
p▁ o▁s
j ud▁
B r
▁m ic
▁200 8</w>
ti▁ cle</w>
ov▁ er
h on
a▁ k
att ached</w>
F▁ or
▁y e▁ar</w>
▁w▁ ith</w>
▁re b
▁jud icial</w>
s▁u b
re▁ n</w>
l ong
▁conven ient</w>
thr▁ ough</w>
s .</w>
▁phenomen on</w>
▁com ply</w>
▁bu ying</w>
me th
il s</w>
fun c
ch ai▁r
S T</w>
▁t▁ he</w>
▁fig ures</w>
▁c ool</w>
s ively</w>
in formation</w>
e▁r ing</w>
S ept
C o▁un
▁differ ences</w>
▁Chungch eong</w>
is h▁ed</w>
d er▁
Reg a▁rdi▁ng</w>
3 00</w>
▁kn ew</w>
▁d ▁
▁A ud
ust ain
ti n</w>
prof ess▁or</w>
ou▁ ng</w>
Th ere</w>
Educ ati▁on</w>
▁be er</w>
▁P eace</w>
▁D ynasty</w>
ti on▁al</w>
p it
o▁r m</w>
f e▁r
en h
educ ▁
▁st atistics</w>
▁spre ading</w>
▁emerg ed</w>
▁: :</w>
s ales</w>
b on</w>
, ▁
▁s u▁
▁grow n</w>
▁cons ulting</w>
▁benef it</w>
▁adv ice</w>
ot▁ ed</w>
nam ese</w>
j e▁c
icul um</w>
ang h
▁go als</w>
▁ex posed</w>
th i▁ng</w>
p i
l ov
h and
eff ec
app▁ ly</w>
▁sk y</w>
▁d rugs</w>
▁bl ock</w>
▁Olymp ics</w>
s▁ ti
st a▁
on ial</w>
ol s</w>
l▁ i
in ati▁on</w>
hous i▁ng</w>
eng th</w>
de p▁
M us
▁won der</w>
▁requ ests</w>
▁hy drogen</w>
▁fea ture</w>
▁an x
▁M an
o▁l s</w>
j u▁
ea▁ s</w>
b▁ le</w>
Nor t▁h</w>
F ound
▁pat h</w>
▁natur ally</w>
i▁ r</w>
ee d▁ed</w>
e ys</w>
ac tive</w>
Gov▁ ern▁or</w>
C on▁
▁hosp itals</w>
ti le</w>
st y▁le</w>
om b</w>
ner ship</w>
ir l</w>
ho▁ ld</w>
e▁l fare</w>
ad ministration</w>
▁report ers</w>
▁he▁ ad</w>
▁ha v▁e</w>
▁don ation</w>
tur n</w>
gr am</w>
F ac
C ourt</w>
▁re ward</w>
▁g r▁
stit utes</w>
Y ang
Wh▁ en</w>
▁su n</w>
▁gr ant</w>
▁ex ecution</w>
w it▁h
ous ing</w>
mor ning</w>
m ark</w>
i e▁n
ea vy</w>
ati o▁nal</w>
▁perform ing</w>
▁o blig
▁app ears</w>
▁Th ailand</w>
y▁ ears</w>
n it
i▁ st▁
expla▁ ined</w>
e ffici
▁sw eet</w>
▁offer ed</w>
▁dri ve</w>
l igh
er ea
en▁ ing</w>
b y
N ov
▁ag ing</w>
▁G eum
op▁ en</w>
m▁ en▁t</w>
ev a▁nt</w>
S oo</w>
H o▁ng</w>
▁real ize</w>
▁re fer
▁al cohol</w>
won do</w>
p ot
el ings</w>
as n</w>
▁oper ators</w>
▁inev itable</w>
▁fr anch
▁ag ree</w>
▁Kor e▁a</w>
ym ore</w>
tr aini▁ng</w>
p▁er s▁on</w>
j oi▁nt</w>
it a▁n</w>
b▁e ing</w>
ash ing
Su▁ preme</w>
In stitu▁te</w>
▁pre gn
s afety</w>
j udg
c ultu▁re</w>
bo▁ dy</w>
Prov i▁nce</w>
▁g ain</w>
v ar▁
com es</w>
Coun cil</w>
&▁apos; t</w>
▁us age</w>
▁r out
qu e</w>
ll ed</w>
c ame</w>
20 th</w>
▁v i▁sit</w>
▁coll abor
rou g▁h</w>
or r▁y</w>
mat▁ ch</w>
er ship</w>
dr aw</w>
bec o▁me</w>
Hy e</w>
▁im ported</w>
pl a▁ns</w>
c ould</w>
C up</w>
▁offic ially</w>
▁m outh</w>
▁m ill
▁H ere</w>
▁A ll
p▁e opl▁e</w>
po▁ se</w>
is su▁
i ously</w>
ho▁ on</w>
e▁x p
c an
ain e▁d</w>
Un i▁
S ta▁
▁sur face</w>
▁dispat ched</w>
▁ath letes</w>
▁G al
s▁ l
prom o▁te</w>
enc ing</w>
▁G or
w elfa▁re</w>
spec ▁
prov inci▁al</w>
c▁ oun
c at
b ank</w>
▁re organiz
▁pret ty</w>
▁perf ect</w>
▁n early</w>
▁f arm</w>
u▁ ps</w>
p▁ol icy</w>
B us
s▁h a▁ll</w>
ho▁ ur</w>
f a
ec on▁
d eg
d ai</w>
Pr osec
G e
▁t yphoon</w>
▁sl ow</w>
▁sem ester</w>
▁dro pped</w>
▁det ected</w>
▁amend ment</w>
▁C ong
zbe k
s ett
pr▁iv ate</w>
ol den</w>
oc ated</w>
o il</w>
i▁l ity</w>
ain t</w>
M y</w>
M on
▁unf air</w>
▁th reat
▁ref ers</w>
▁dri vers</w>
▁b a▁sed</w>
▁af ter
▁ad ults</w>
▁J ud
or ▁e</w>
il at
i ary</w>
a e▁
▁identi fied</w>
▁ab ou▁t</w>
po▁ p
mi▁ ss
is▁ t
ess ors</w>
ann ou▁n
agre ement</w>
▁fac tor</w>
ro▁ le</w>
prof essi
me a▁ns</w>
invest me▁nt</w>
coun tries</w>
a▁d y</w>
▁newsp aper</w>
▁cre ative</w>
uc ks</w>
sub sid
si l</w>
oth e▁r</w>
m om
Univer sit▁y</w>
▁dis posal</w>
▁d ea
ro▁ w
reg ion</w>
plo y▁
me▁ d
inv es▁
f▁ ri
ann o▁un
L oc▁al</w>
I S</w>
C ou▁rt</w>
2 7
▁smartph ones</w>
▁confl icts</w>
▁complain t</w>
▁a id</w>
the▁ m</w>
o y▁
bo x</w>
af ternoon</w>
R es▁
G▁ u</w>
▁str ike</w>
▁Han wha</w>
hea▁ d</w>
e▁ me▁nt</w>
b▁u d
b ad</w>
A ir
20▁1 8</w>
ti se</w>
str o▁ng</w>
o▁w er</w>
ong no</w>
▁s igning</w>
▁b onds</w>
wor kers</w>
te▁ e</w>
n u▁m
e▁m en▁t</w>
a▁n ts</w>
▁un cer
▁pay ments</w>
▁ch ar
▁W estern</w>
▁R yu</w>
s ociety</w>
mon ths</w>
f▁ in
f ather</w>
e the▁r</w>
comm un
Metropol ▁itan</w>
1▁ 9
▁o ▁
▁conserv ative</w>
▁awar eness</w>
unic ations</w>
qu ality</w>
ordin ate</w>
em p▁l
▁wh enever</w>
▁lec tures</w>
▁fe els</w>
▁exper t</w>
▁ar my</w>
▁G e
ter ▁n
o▁ ver</w>
m att
l▁ s</w>
l▁ ing</w>
jus ▁t</w>
it or
i ums</w>
ge▁n eral</w>
c▁h eon</w>
b▁ ack</w>
a ised</w>
▁l ux
▁eas ier</w>
t▁ ak
su b▁
o▁l ogy</w>
jo▁ bs</w>
is ition</w>
e very</w>
aut om
air ed</w>
▁sh oes</w>
▁gre ater</w>
▁Christ mas</w>
o▁w ing</w>
h ope</w>
Par▁ k</w>
▁schol ar
▁s ear
▁requ irements</w>
▁orig inally</w>
▁cor ruption</w>
▁con tributed</w>
▁appreci ate</w>
▁Mot ors</w>
▁En ergy</w>
tre at
s▁ er▁
re ferred</w>
pro jects</w>
liv i▁ng</w>
fi▁r st</w>
es▁ ted</w>
diffic ul
c ourt</w>
D a▁
▁r iver</w>
▁purch asing</w>
▁h owever</w>
▁cooper ative</w>
▁claim s</w>
▁N or
▁F ilm</w>
▁E very</w>
s m▁
represent ati▁ve</w>
r ▁ul
m id</w>
m e▁n
e t▁y</w>
a▁n c▁e</w>
B yung</w>
4 ▁th</w>
▁vic tory</w>
▁t ariffs</w>
▁big ger</w>
▁b an
▁T okyo</w>
u thor
tu p</w>
ough ly</w>
m m</w>
im ming</w>
et c.</w>
▁supervis ion</w>
▁Pro ject</w>
par ag
ne▁ ar</w>
h ▁u
c itizens</w>
a▁ fte▁r</w>
ar e▁a</w>
1 0th</w>
▁em b
▁d ry</w>
▁cont ain
▁C ivil</w>
rec ru
pre ad</w>
ig n▁ed</w>
es▁ ts</w>
en c▁y</w>
con tro▁
▁w o▁r
▁cover ed</w>
▁car efully</w>
▁S ome
th e▁rn</w>
os ed</w>
iz ▁ation</w>
f a▁ns</w>
con fl
c ust
▁un less</w>
▁ref er</w>
▁compl exes</w>
t ow
enti a</w>
c e▁s</w>
aud ▁
ac h▁
T X</w>
Or di▁n
K won</w>
▁rul ed</w>
▁listen ing</w>
▁govern ed</w>
uc tion</w>
pr▁ il</w>
in c▁lud
diffic u▁lt</w>
com fortable</w>
aw n</w>
an t▁s</w>
▁r aw</w>
▁far ms</w>
▁Y eon
▁Bo ard</w>
hea l▁th</w>
az on</w>
W oo</w>
A si▁an</w>
2 8
▁wor se</w>
▁commer ci
▁B ar
▁A si
yo▁ ung</w>
vis it</w>
u▁r n</w>
r ai▁
it ual</w>
in cer
im b
e▁n tly</w>
ee f</w>
econom ic</w>
ear n
atten d▁ed</w>
▁wh e▁n</w>
▁pr o▁
▁m aster</w>
▁in stitute</w>
▁d ogs</w>
▁d ark</w>
▁b and</w>
▁N owon</w>
▁Ar ts</w>
m▁ et</w>
is s</w>
ef s</w>
al▁ ity</w>
A I</w>
▁sm all
▁scor ed</w>
▁P yongyang</w>
dom est▁ic</w>
co▁n t
▁pen alty</w>
▁dec or
▁all owing</w>
▁ac ting</w>
▁Agric ultural</w>
tak i▁ng</w>
sit uation</w>
pa▁ st</w>
du▁ ce</w>
M W</w>
En ter
D el
. 5
▁sud den</w>
▁shar ply</w>
▁exper im
▁comb ined</w>
▁Pa ju</w>
o▁ r▁
h ot</w>
en sus</w>
e on▁g</w>
bec om
a▁r ty</w>
a▁c c
appoin t▁ed</w>
an a▁l
▁y ourself</w>
▁m om</w>
▁m ass</w>
▁inv ited</w>
▁chall enge</w>
▁b ▁e</w>
▁A ut
pr▁ od
g ▁e</w>
,0 0▁0</w>
▁v ess
▁pic k</w>
▁parliam entary</w>
▁inv ested</w>
▁i gn
▁ass et</w>
stand i▁ng</w>
p▁ ol▁
po▁in t▁ed</w>
g lob▁al</w>
ech▁ n
▁vill ages</w>
▁spec ified</w>
▁awar ded</w>
▁J oon</w>
s▁h ip</w>
d ou
b ooks</w>
all en</w>
▁wor ry</w>
▁m eals</w>
▁bl ocked</w>
▁T eam</w>
▁20 20</w>
ho▁ pe</w>
h it</w>
ar ian</w>
ap o</w>
C▁ enter</w>
▁sup ports</w>
▁e sc
▁N ext</w>
urs day</w>
ex ▁t</w>
ed eral</w>
b el▁
ad es</w>
P r▁es
▁su ffer</w>
▁initi al</w>
▁cont aining</w>
te▁ nd</w>
so▁ on</w>
ne igh
b etween</w>
aug ur
ap y</w>
a th▁
▁su it</w>
y▁ u</w>
ir▁ ed</w>
fer en▁ce</w>
▁beg un</w>
▁10 0,000</w>
rel ation
Or ganiz
▁ch ose</w>
ri f
co▁ st</w>
ach iev
&▁apos; ▁s</w>
▁s ad</w>
▁ac ts</w>
s i▁ng</w>
ref igh
p▁ art</w>
o tions</w>
in c▁re
ic i▁es</w>
h▁av ▁e</w>
g ▁ue</w>
c▁ o
S▁ outh</w>
Ar ti
▁ear thquake</w>
▁det ail</w>
▁R el
s▁ ta▁
prov i▁ncial</w>
lar ation</w>
an der</w>
▁br ands</w>
y ment</w>
pr▁ oc
l▁ evel</w>
f ul▁
employ me▁nt</w>
ch a▁r
R S</w>
1 8th</w>
▁explan ation</w>
wh▁ ere</w>
tim▁ es</w>
syst e▁m</w>
ist ant</w>
if ying</w>
ici ary</w>
g▁ er</w>
el em
▁l ease</w>
▁d ivid
▁charg ed</w>
s▁ ch
ough ts</w>
op ▁e</w>
n▁ ame</w>
b▁u k</w>
Sa▁m sung</w>
▁no tic
▁canc ell
▁S y
▁C ol
vi e▁w</w>
u▁ es</w>
ult an
r i▁s
oth ly</w>
nec e▁ss
h ib▁
d a▁ta</w>
cl aim
b▁ ig</w>
▁vo ices</w>
▁organiz e</w>
▁fl ower</w>
▁Ch useok</w>
st op</w>
re ly</w>
com par
b ors</w>
▁sl uggish</w>
▁real ized</w>
▁offer ing</w>
▁mist ake</w>
▁innov ative</w>
▁gu ess</w>
▁exem ption</w>
▁e ither</w>
▁G eun</w>
r▁ em
ra p▁
is h▁
fir s▁t</w>
ci t▁
S tr
P▁ ark</w>
P I</w>
▁oper ations</w>
▁g e
▁emp ty</w>
▁declar ation</w>
▁S e</w>
▁D e
re p
m▁ ov
d ang</w>
au ce</w>
ati o▁n
P resi▁d
▁su icide</w>
▁resear chers</w>
▁relig ious</w>
▁effici ently</w>
▁dem anded</w>
▁concentr ated</w>
▁&a▁ pos;</w>
tic▁ al</w>
t ings</w>
pp ing</w>
n▁u m
ig ar
fac ▁t</w>
curr e▁nt</w>
Kor▁ ean</w>
▁p ed
▁man ip
▁c af
▁S NS</w>
ro le</w>
ok i▁ng</w>
m▁ en</w>
i▁ als</w>
i os
▁teen agers</w>
▁in form</w>
▁gre w</w>
▁f ifth</w>
▁competi tive</w>
▁Christi an</w>
stitu tion</w>
pa▁ id</w>
ist ence</w>
g u▁n</w>
e▁ am</w>
ex▁ p
el i
bus i▁ness</w>
In d▁
Com▁ m
▁j ustice</w>
▁clos ely</w>
▁br ain</w>
▁Se ong</w>
l os
bass ador</w>
ad ver
S ▁h
▁par ti
▁b ▁
▁H ello</w>
y ear▁s</w>
st a▁te</w>
rel eva▁nt</w>
ind ic
con si▁
ay▁ er</w>
▁d ong</w>
▁conf idence</w>
▁Sing er</w>
▁G iven</w>
play ▁ed</w>
l i▁ng</w>
ild▁ ren</w>
co▁ ll
3▁ 0</w>
▁tro ops</w>
▁trav eling</w>
▁mus ical</w>
▁g one</w>
▁el im
▁clean ing</w>
wa▁ ys</w>
spec ial</w>
se▁r vice</w>
it ations</w>
ha▁ v▁e</w>
h am</w>
fi e▁ld</w>
b o▁r
activ e▁ly</w>
J in
▁passeng er</w>
▁d ed
▁ac tions</w>
▁H o</w>
y on▁g</w>
ver s▁
gr▁ am</w>
c u
bec ause</w>
a▁ tion▁s</w>
ai▁ r</w>
I C
0 00</w>
▁st abil
▁mon itoring</w>
▁f iscal</w>
▁ab and
w▁ it▁h</w>
r▁ ough</w>
ri ers</w>
pop ul
os en</w>
ol og▁y</w>
m yeon</w>
l oo
g l▁
bl ed</w>
5 00</w>
▁th▁ ere</w>
▁form ulate</w>
tor ies</w>
pos ite</w>
ial ▁s</w>
g n</w>
em▁ ocr
c oo
M e▁
▁ven ture</w>
▁sh ops</w>
▁man d
▁los ses</w>
▁fi erce</w>
▁exten sion</w>
▁Wh o</w>
▁Viet namese</w>
▁Pen sion</w>
▁B aek</w>
▁5 2</w>
▁3 0s</w>
w eb
u▁ ction</w>
t ae</w>
bu▁ s
, 6
▁inv oice</w>
▁for um</w>
▁Cheong ju</w>
res taur
re ti
pre▁ me</w>
l in▁e</w>
it r
c ur▁
▁wind ow</w>
▁w ake</w>
▁t ons</w>
▁prov inces</w>
▁lea ds</w>
▁exam ine</w>
▁e ase</w>
▁dis tricts</w>
▁c ode</w>
▁ap peal</w>
▁Se ok</w>
▁G lobal</w>
o▁ b
er ▁ed</w>
enter pris
duc ts</w>
ch▁ ang
c ost</w>
▁y ellow</w>
▁situ ations</w>
▁re fr
s l▁
h ig▁h</w>
esta▁bl i▁sh</w>
W ▁h
Mar ch</w>
K▁or ea▁n</w>
▁wh om</w>
▁autom atically</w>
▁adverti sing</w>
v▁ ey</w>
pr▁ og
min im
mak er</w>
i▁n gs</w>
ish es</w>
U. S▁.</w>
▁lea ves</w>
▁J o</w>
▁Hu awei</w>
tur ▁es</w>
s uc▁h</w>
pos▁ ;
pers o▁n</w>
ic it</w>
con d</w>
bec ome</w>
a▁c y</w>
201 5</w>
▁t opic</w>
▁sp aces</w>
▁replac ed</w>
you▁ r</w>
w e▁nt</w>
w a▁ge</w>
ther wise</w>
in ations</w>
f ense</w>
ch ief</w>
al▁ ls</w>
▁pack age</w>
▁im ages</w>
▁exclus ive</w>
▁deg ree</w>
ph ot
k ▁n
in et</w>
F i▁n
▁sec urities</w>
▁earn est</w>
▁d er
▁a r▁
w▁ it
s▁ ix</w>
il▁ ls</w>
id▁ eo</w>
e▁ ir</w>
ch ild</w>
as▁ te</w>
▁re place</w>
we▁ ek</w>
uc le▁
serv ices</w>
gu id
a▁n s
&▁qu ▁o▁t;</w>
▁t i▁me</w>
▁st eel</w>
▁pus hing</w>
▁fre ely</w>
▁H ar
▁C ap
st ory</w>
per s▁
j ung</w>
ad v▁
▁fu el</w>
▁ad just</w>
um i</w>
m ess
establis h▁ed</w>
contin u
ans w
Dem oc▁ratic</w>
Ch▁ ina</w>
2 6
▁s p▁
▁pr ime</w>
▁con tribution</w>
vers ity</w>
lik e▁ly</w>
estab l▁
S o</w>
C o▁n
▁t elecomm
v arious</w>
techn ology</w>
se▁ ok</w>
pe ti▁
o▁r ts</w>
iti cal</w>
dis tribu
ci ent</w>
B r▁
▁r ide</w>
▁im ag
▁f ear</w>
▁discover ed</w>
▁G o</w>
y a</w>
s▁ ystem</w>
ot her
ee ts</w>
▁sim ply</w>
▁mis s</w>
▁R oad</w>
▁An y</w>
▁6 5</w>
gre at</w>
▁p age</w>
▁W o
▁ tr
ti s</w>
prov in▁ce</w>
m aking</w>
i▁ ons</w>
iti v
ific ations</w>
form ed</w>
estiv als</w>
doc um
a▁in st</w>
Wor ld</w>
▁tal ent</w>
▁multi ple</w>
▁In depend
s o▁l
pl aces</w>
op▁ er
o king</w>
ic op
em▁ bly</w>
c all</w>
OS CO</w>
E uro
▁s pl
▁recogn ize</w>
▁cons ists</w>
▁L aw
ter ▁ed</w>
oy s</w>
or ary</w>
Gov▁ er▁n
12 th</w>
▁w oul▁d</w>
▁st ability</w>
▁spen ding</w>
▁sing ers</w>
▁public ly</w>
▁no ise</w>
▁manag ing</w>
▁e cos
▁dep ar
▁brief ing</w>
▁S MEs</w>
▁Con struction</w>
▁1 50</w>
rec or
im medi
gu ar
d▁ em
as ted</w>
agre eme▁nt</w>
S up
N a</w>
A pril</w>
▁trans par
▁rem ove</w>
▁Inv estment</w>
w▁ ith
su▁ ant</w>
sh ort</w>
se▁ as</w>
mak ▁e</w>
lik ely</w>
l ets</w>
fi▁ l
d in▁
atiz ation</w>
▁star ts</w>
▁s ex
▁collap se</w>
▁200 7</w>
s▁ i</w>
sh or
ma▁ y</w>
m ove</w>
e▁n g
en sive</w>
ed▁ ge</w>
coun t▁ry</w>
at▁ ion▁s</w>
E ▁n
2 9
&a▁po▁s ;</w>
▁un like</w>
▁s oci
▁expl os
▁chall eng
▁c atch</w>
st e▁
sh ow▁ed</w>
pr▁ es▁
fac t</w>
el er
c ases</w>
ay ers</w>
R ev
N o▁rth</w>
A p
19 th</w>
▁l ess
▁ill eg
▁am oun
▁alleg ed</w>
▁Malay sia</w>
y▁ oung</w>
n et</w>
lo c▁
▁win s</w>
▁spon s
▁pur poses</w>
▁f aster</w>
▁P ompeo</w>
▁3 1st</w>
r ise</w>
ograp h
off i▁ci
l ater</w>
ind epend
f▁am ily</w>
fort un
ener y</w>
de al</w>
comm unity</w>
ch ang</w>
arm ing</w>
R e
▁injur y</w>
▁h ost</w>
▁eng aged</w>
▁auth or</w>
▁V arious</w>
▁Tur key</w>
▁Gr and</w>
v i▁c
ir▁ec t▁or</w>
g▁ row
fr ont</w>
for▁ m</w>
de▁c i▁ded</w>
bu y</w>
ann i▁ng</w>
N .</w>
. .</w>
▁hand ling</w>
▁b attle</w>
▁Gre en</w>
▁0 .
s▁ aying</w>
res ses</w>
ran ch</w>
me▁ et▁ing</w>
h a▁rd</w>
e▁nt ary</w>
ad d▁
ac ting</w>
E X</w>
3 3</w>
▁v acc
▁fam iliar</w>
▁extre me</w>
▁exc eeded</w>
▁e g
▁cul tiv
▁comb ination</w>
▁N ews</w>
▁Mus ic</w>
ond ary</w>
matt e▁rs</w>
e▁ ll</w>
en ses</w>
d ust</w>
cer emo▁ny</w>
O n</w>
D▁ is
&▁ap▁os ;</w>
▁sec uring</w>
▁g ained</w>
▁bir thday</w>
▁P ohang</w>
▁L aw</w>
o▁r d</w>
l▁ ik
l t</w>
i▁t an</w>
iti on▁al</w>
H all</w>
▁str aight</w>
▁los ing</w>
▁curr iculum</w>
▁aff ect</w>
▁H ae</w>
▁3 4</w>
sti▁ ll</w>
rel eased</w>
pre vi
g e▁t
f os
Aff ai▁rs</w>
▁mut ual</w>
▁lea gue</w>
▁communic ate</w>
ti g
re x
is ti▁ng</w>
il ding</w>
U▁n ited</w>
Da e▁
▁lawmak er</w>
▁c afe</w>
▁H was
p▁e o▁ple</w>
p▁ ri
incl u▁ding</w>
f utu▁re</w>
em ph
ci en▁ce</w>
b al</w>
▁ver sion</w>
▁sh ooting</w>
▁m unicipal</w>
▁k imchi</w>
▁c o▁
▁bo at</w>
▁W on
▁Pr ot
▁M r
▁G o
y l
r▁ ate</w>
rel▁ ated</w>
i▁ gh</w>
h▁ igh
h ours</w>
ec o</w>
ar row</w>
P ri▁
▁w edding</w>
▁fac ing</w>
▁3 2</w>
r▁ec ent</w>
h wan</w>
es▁ tiv
Su per
▁diplom atic</w>
sib ili▁ty</w>
cas ▁es</w>
J un▁g</w>
A sia</w>
20▁ 0
▁invest ments</w>
▁h ike</w>
▁f undam
▁cr oss</w>
▁classi fied</w>
▁arti st</w>
▁R ights</w>
t omorrow</w>
sy▁st em</w>
sp e▁c
s ou
prov id
i▁ cial</w>
ay ▁ed</w>
administr ati▁on</w>
ac tly</w>
B u▁
A▁ ss
11 th</w>
▁discrim ination</w>
▁bor row
▁S ang
▁C h▁
si▁ ty</w>
si k</w>
sc▁h ool</w>
s ea</w>
pe▁ ri
ll ing</w>
l aw▁
i▁r st</w>
h▁ alf</w>
ath e▁r</w>
app ing</w>
al ogue</w>
S er▁
1 s▁t</w>
, 8
▁w ▁h
▁r are</w>
▁cl ou
ou ido</w>
os u</w>
is ▁t</w>
▁usu al</w>
▁e th
▁K o</w>
t▁ ic</w>
pos▁ ition</w>
m i▁l
issu es</w>
h aus
ent um</w>
busin ess▁es</w>
▁rem arks</w>
▁day care</w>
▁a l▁
▁I CT</w>
un ior</w>
on a▁l</w>
ech an
bass y</w>
▁stud ied</w>
▁hand ed</w>
▁h iring</w>
▁custom ized</w>
▁Ta x</w>
▁J oo</w>
yo▁ ur</w>
p i▁c
os▁ p
man ent</w>
f ine</w>
c ▁ul
al one</w>
4 8</w>
&a▁pos▁ ;▁s</w>
▁exc av
▁com position</w>
▁ann ually</w>
▁P ower</w>
▁An san</w>
t▁h ree</w>
or n</w>
ob by</w>
gener ati▁on</w>
educ ▁ation</w>
arg o</w>
▁th in▁k</w>
▁pil ot</w>
▁ow ned</w>
▁En ter
v ic▁e</w>
t▁ri al</w>
tr ie▁s</w>
t arily</w>
p rec
ot a</w>
in▁ d</w>
im al</w>
h▁ ere</w>
here inafter</w>
g▁ an
expres s▁ed</w>
es tr
cer t</w>
▁evalu ated</w>
ul ted</w>
tr u▁
re▁ la▁ted</w>
p oll
oun d▁
i e▁nce</w>
e▁x p▁
esti v▁al</w>
b▁e fore</w>
ber g</w>
Gwang ▁ju</w>
3 7</w>
▁f ails</w>
▁at titude</w>
▁B oth</w>
▁201 ▁
v i▁s
st a▁rt</w>
rec ent▁ly</w>
or▁ ry</w>
l ands</w>
l and
go al</w>
essi ons</w>
ed ged</w>
M▁ in▁
▁fos ter</w>
sp ace</w>
serv ic▁es</w>
re▁ ase</w>
or▁ ted</w>
k inderg
if ts</w>
fin▁ al</w>
f ig
e▁ ff
an▁ k</w>
P resident</w>
Min▁ ist▁er</w>
In▁ cheon</w>
▁fri endly</w>
▁bor der</w>
re q▁u
k▁ ey</w>
f▁or m</w>
establis h
ec▁ tion</w>
cu▁r rent</w>
S un
▁tal ked</w>
▁sp icy</w>
▁se al</w>
▁fa ith</w>
▁f ing
▁N ex
st a▁ge</w>
p▁os ▁
gover n▁
ch on</w>
ak ▁
S AT</w>
M Z</w>
D A
▁v oting</w>
▁reason able</w>
▁intern et</w>
▁fac ts</w>
▁J un</w>
▁Gyeong nam</w>
▁Econom y</w>
pa▁r ed</w>
par liam
on ment</w>
inv olv
enter ▁ed</w>
conf e▁r
a▁d ded</w>
arb age</w>
accor di▁ng</w>
J u▁ne</w>
Gang nam</w>
▁un usual</w>
▁tou ch</w>
▁n ecess
▁en thusi
▁doll ar</w>
▁dem ands</w>
▁dang erous</w>
▁d rew</w>
▁Sh im</w>
▁N ot
▁D i
ye on▁g</w>
on▁ es</w>
m ad▁e</w>
im pro▁ve</w>
i or
c▁ er
conc e▁r
c m</w>
ass ment</w>
an n▁
Res ear▁ch</w>
▁sh ut
▁H on
st u▁
pro du▁c
p at▁
o▁w ed</w>
on ▁ed</w>
m▁ eans</w>
l ead</w>
el▁ l
Li▁ ber
1 5th</w>
▁ordin ance</w>
▁memor ies</w>
▁cr os
▁M ic
▁G un
▁Br idge</w>
p o▁n
om b
d ri▁
c▁h ange</w>
charac ter
chang ed</w>
abil i▁ty</w>
T r▁
▁merch ants</w>
▁employ ed</w>
y one</w>
prev e▁nt</w>
pres s
com pet▁
ag er</w>
S e</w>
F und</w>
A N</w>
▁tow ards</w>
▁negoti ation</w>
▁g ate</w>
▁b all
▁Exc ept</w>
th ird</w>
or gan
m ulti</w>
S A</w>
H u
, 9
▁flex ible</w>
▁down town</w>
t▁ ive</w>
to▁ o</w>
op eni▁ng</w>
ig ence</w>
d e▁m
▁s entiment</w>
▁h ot
▁J ung
wh eth▁er</w>
s▁u p
requ ▁
pu▁r p▁ose</w>
particip a▁te</w>
k er▁s</w>
fa▁ ce</w>
e in</w>
dis c▁
co▁m p▁
N o.</w>
B ar
, 7
&ap▁os▁ ;</w>
▁&q▁u ▁ot;</w>
s▁ ized</w>
g yp
J us
G r
▁v it
▁retur ning</w>
▁lin ked</w>
▁You Tube</w>
th▁ a▁t</w>
star t▁ed</w>
re port</w>
ov e▁r</w>
govern m▁ent</w>
g ers</w>
f ill</w>
dis t
art a</w>
S C</w>
▁hum an
ut▁ es</w>
ograp hy</w>
h▁ el
f ind
c ou
Pro f
▁wid ely</w>
▁hum ans</w>
▁4 5</w>
uch eon</w>
ten ed</w>
sti ll</w>
si▁ ble</w>
ro oms</w>
re a▁dy</w>
r u▁n
pro d▁uc
or ▁ed</w>
mil▁ itary</w>
ing ing</w>
dis trib
ch eong
am ou▁nt</w>
C C</w>
▁sh ipment</w>
▁prom ised</w>
▁piec es</w>
▁L ooking</w>
pl▁ ex</w>
offic ials</w>
R ec
▁suppl ied</w>
▁in quir
▁gar den</w>
▁fru it</w>
▁F ree</w>
with in</w>
sa▁ ng</w>
r▁eal ly</w>
n e▁d</w>
in tro▁
ashing ton</w>
S on</w>
2 7th</w>
▁p op</w>
▁memor ial</w>
▁hund reds</w>
▁adop ted</w>
▁Com pany</w>
▁Chang won</w>
▁Be ijing</w>
su fficient</w>
pon ents</w>
pl at
h uman</w>
f i▁ne</w>
b i▁
aff ai▁rs</w>
Pro f▁
Gen er▁al</w>
Ass oci▁
▁s cienti
▁pre fer</w>
▁num bers</w>
▁investig ated</w>
▁def in
▁continu ous</w>
▁c ake</w>
▁behav ior</w>
▁Yong in</w>
▁C itizens</w>
pr ais
or se</w>
m▁ p</w>
ma▁r ket</w>
indus tri▁al</w>
en e▁ss</w>
at u▁re</w>
S am▁
O▁ ffice</w>
Comm▁ ittee</w>
▁val u
▁resol ved</w>
▁in str
▁a spec
▁a c▁
maj or</w>
k▁ et</w>
is si▁on</w>
e▁ ther</w>
ea▁ m</w>
a▁ir man</w>
a eg
Un it▁ed</w>
▁w o▁uld</w>
▁mil k</w>
▁f ill</w>
▁dis advant
▁ass aul
st ablis
p oin
o▁ ri
j o▁ng</w>
eter ans</w>
direc tor</w>
Gang w▁on</w>
Fin a▁ncial</w>
A ▁n
▁wat er
▁so ft</w>
▁s ources</w>
▁Sec urities</w>
▁S en
st a▁nd</w>
peti tion</w>
p re</w>
ain ts</w>
aff airs</w>
En viron
C▁h ina</w>
▁t ar
▁fi res</w>
▁coll ecting</w>
t▁ it
pro▁ c
o▁ ve</w>
os un</w>
om▁ y</w>
loc at▁ed</w>
il os
ech eon</w>
, 4
▁dis h</w>
r▁ d</w>
reg ion▁al</w>
me▁m b▁ers</w>
ath y</w>
▁s it</w>
▁por tion</w>
▁m el
▁le isure</w>
▁law yer</w>
▁eng ine</w>
▁disapp eared</w>
▁cop y</w>
▁S e▁
re fer
on ic</w>
man ip
l ic
k e▁rs</w>
is ional</w>
if▁ ic</w>
h▁ ye</w>
e▁ conom
employ e▁es</w>
ell er</w>
d ig
broad cas
bre ak</w>
ab▁ out</w>
▁mar ine</w>
▁cl ient</w>
▁c u
▁bic ycle</w>
w▁ ar</w>
la▁ w
hi▁ m</w>
d▁u c▁
Li▁ber ty</w>
&a▁pos▁ ;</w>
▁u plo
▁power ful</w>
▁h eight</w>
▁fi r▁
▁T u
▁M ad
v eh
ot ▁e</w>
nov ation</w>
le▁ ad
Ch e
▁wor s
▁u ▁
▁L ike</w>
▁I ts</w>
▁B el
re t▁
pos t</w>
por ti▁ng</w>
oti c</w>
lo or</w>
l friend</w>
hist ory</w>
g ove▁rn
f em
environ ment</w>
ac t
In tern▁
Al t▁h
▁wor st</w>
▁ju ven
th▁ eir</w>
su m▁
mat ch</w>
j oin
ener ation</w>
c▁ ent</w>
c ean</w>
J oon</w>
Ar t</w>
▁l e▁
▁dou b
▁cr ack
▁ag ent</w>
pl▁ y</w>
ous ness</w>
o ir</w>
lo▁ ok</w>
il it▁y</w>
d ivid
V s</w>
S o▁
▁intro ducing</w>
▁hel ping</w>
▁Indus tries</w>
tre prene
re in
p resident</w>
our▁ t</w>
kn owl
er g▁
bus▁ in
ampion ship</w>
▁c up</w>
w▁ or▁
l ives</w>
l e▁s</w>
f ish</w>
K a▁ng</w>
▁rel ation</w>
▁ma p</w>
w om▁en</w>
un ivers
t▁ al
tr ue</w>
te er</w>
r os
oo den</w>
m e▁d</w>
l▁ ine</w>
ign ment</w>
he▁ al
elec ti▁on</w>
d▁ ep
con nec
bud g▁et</w>
T ra▁
N e▁w</w>
▁m all</w>
▁ap olog
▁Seong nam</w>
▁B ur
▁Am azon</w>
ma▁t ters</w>
k ▁now</w>
i ant</w>
compan ie▁s</w>
c a▁ll</w>
b illion</w>
2▁ 0</w>
▁sou p</w>
ti▁ c
s▁ ide</w>
c▁h a▁rge</w>
co oper▁
ach es</w>
G a▁ng
▁sec ret</w>
▁pro pos
▁im port</w>
▁gu ar
▁d r▁
▁Sp ain</w>
▁H ang
▁H ak</w>
▁Ab ove</w>
val ue</w>
t▁ ake</w>
org a▁n
i▁ tie▁s</w>
S i</w>
▁n o▁t</w>
▁inspec t</w>
▁i ▁t</w>
▁ep is
s een</w>
pr ing</w>
ol▁ ogy</w>
e ff▁
a▁ ms</w>
1 .
▁replac ement</w>
▁r ▁
▁des ire</w>
▁analy ze</w>
▁Rep .</w>
▁Pol icy</w>
▁M i</w>
▁M embers</w>
▁Buddh ist</w>
un ion</w>
n ation</w>
i▁ ous</w>
cul▁ tural</w>
civ▁ il</w>
ar a</w>
A f▁f
▁wh▁ o</w>
▁pl ays</w>
▁identi ty</w>
▁d riv
sus p▁
org an▁
iv▁ ing</w>
in tr▁
i ol
gre▁ at</w>
a▁ ir▁
administr ati▁ve</w>
▁plen ary</w>
▁happ iness</w>
wh a▁t</w>
situ ati▁on</w>
ch em
c en▁
C oun▁
▁tur ning</w>
▁tr ends</w>
▁m al
▁frequ ent</w>
▁f avor</w>
▁dis charg
▁cl ubs</w>
er▁ ing</w>
dom▁ estic</w>
▁l et
▁Nav er</w>
trans port
tal▁ ks</w>
i▁ ence</w>
a▁ st
C ente▁r</w>
3 8</w>
▁exten d</w>
▁diagn osis</w>
▁custom s</w>
▁cre am</w>
▁ab und
▁W ednesday</w>
▁K ia</w>
t▁r ict</w>
sup pl
l ar▁
k et
ic▁ an</w>
ic ati▁on</w>
ch▁ ool</w>
bl em</w>
Rep res
▁v oc
▁un ity</w>
▁s oo</w>
▁o therwise</w>
▁f ounded</w>
▁bu yers</w>
▁bl ind</w>
▁ad ult</w>
tic ultural</w>
per ly</w>
on a</w>
oc r▁
il i▁es</w>
er▁ ation</w>
ea h</w>
d▁ idn</w>
ati s</w>
A n▁
▁trou ble</w>
▁suspic ions</w>
▁st aying</w>
▁pre viously</w>
▁n or
▁k ing</w>
▁gl ass</w>
▁dismis sed</w>
▁ar ▁e</w>
▁For est</w>
▁Ar ticles</w>
▁3 3</w>
wh▁ ic▁h</w>
on▁ ce</w>
j un
fl o
e▁n ti
eas y</w>
c ap▁
at o▁ry</w>
an▁ ch</w>
an ak</w>
Gang won</w>
3 4</w>
&a▁po▁s ;▁t</w>
▁p ork</w>
▁n utr
▁St reet</w>
w el
se▁ cond</w>
pro f▁it</w>
pol icies</w>
man ufactur
ac u
1 4th</w>
▁sol ar</w>
▁invol ving</w>
▁enter prise</w>
▁S ystem</w>
produc ti▁on</w>
pec ▁
fr▁ i
fl oor</w>
coun ter
compa▁n ies</w>
amp▁ ;</w>
Tr ump</w>
▁temper atures</w>
▁rem oved</w>
▁rel ief</w>
▁exp iration</w>
▁ecos ystem</w>
s ing▁
r▁ea s▁on</w>
p▁ re▁
il t</w>
ac ts</w>
S K</w>
▁w ine</w>
▁th oughts</w>
▁sharehol ders</w>
▁qu ick</w>
▁pl easant</w>
▁br ight</w>
▁air craft</w>
ill▁ ion</w>
equ ip
c▁ ity</w>
ann er</w>
2 1st</w>
▁respon dents</w>
▁n erv
▁dis close</w>
▁c entered</w>
▁O per
particip at▁ed</w>
ood les</w>
ic ates</w>
g ar</w>
es ides</w>
conc entr
citiz e▁ns</w>
b ro▁
b es</w>
ay ment</w>
anm ar</w>
ac ▁t</w>
▁success fully</w>
▁smo ke</w>
▁satis faction</w>
▁foot ball</w>
▁declar ed</w>
un j
tem per
res pectively</w>
pro g
in sur
h i</w>
f ol
e▁n cy</w>
employ ▁ed</w>
B ank</w>
▁land scape</w>
▁cons ent</w>
▁Inst ead</w>
sup▁ port</w>
p oor</w>
av ▁e</w>
ate▁ gy</w>
at ri
S ec▁
O ne</w>
0 ,0▁00</w>
▁pr im
▁con tribu
▁a▁ nd</w>
▁aud iences</w>
▁T own</w>
▁B en
s▁ ts</w>
ot▁ el</w>
o o▁ls</w>
im pl▁
d one</w>
c o▁r
c au
N E
Intern ation▁al</w>
▁vi ews</w>
▁t esti
▁see king</w>
▁c itizen</w>
s▁tr ong</w>
su▁ ppo▁rt</w>
sec tor</w>
r o▁ss</w>
n at▁
is io▁n</w>
infl u
hu m▁an</w>
er▁ y</w>
d▁ y</w>
del iber
H ow▁
9 2</w>
▁forec ast</w>
▁belong ing</w>
▁acqu isition</w>
▁R ather</w>
▁Gyeong buk</w>
y un▁g</w>
tic ▁e</w>
m ind</w>
m etropol
g el
co▁n t▁
ch es
as tor</w>
M oo▁n</w>
▁under ground</w>
▁s ac
▁princi pal</w>
▁g arbage</w>
▁bo y</w>
iver ▁
incre ase</w>
h oon</w>
elec t▁ed</w>
▁s auce</w>
▁im pose</w>
▁hon or</w>
▁expres sion</w>
▁Stud ents</w>
wee k
ra▁p h</w>
partic▁ ip▁
nu▁ clear</w>
iv▁ en</w>
ific ati▁on</w>
con sid
armaceu tical</w>
ap ed</w>
Am er
▁th us</w>
▁ro of</w>
▁r ally</w>
▁kil om
▁f estivals</w>
▁St ore</w>
s▁ el
ir cles</w>
h app
g oo▁d</w>
f inis
et▁ ter</w>
av il
ag ainst</w>
Sch o▁ol</w>
R oh</w>
D irec
▁smo king</w>
▁parti ally</w>
▁manag ers</w>
▁aw ards</w>
v e▁r</w>
s▁ ince</w>
spec tive</w>
ft ware</w>
S E
O r▁
▁w aves</w>
▁r oyal</w>
▁prof essors</w>
▁ph ones</w>
▁f allen</w>
▁bea ch</w>
▁T imes</w>
▁S in
▁Agric ulture</w>
urr ence</w>
s▁ ol
o▁ use</w>
n ational</w>
i▁ n▁
is▁ on</w>
ign ation</w>
emerg en▁cy</w>
att en▁
M▁ ar
D em▁ocr
A ▁u
▁u k</w>
▁re in
▁prev enting</w>
▁Shin han</w>
▁J ang
▁A s
w ent</w>
t▁ om
s▁ ure</w>
rel atio▁ns</w>
pe▁r son</w>
o▁ per
om ▁e</w>
om e▁n</w>
mi▁ll ion</w>
it ely</w>
int▁ er▁
grad u
en n
ec e</w>
an d▁ed</w>
Educ ▁ation</w>
▁th▁ e▁re</w>
▁sol id</w>
▁rec over</w>
▁pos itions</w>
▁larg er</w>
▁clos ing</w>
▁c ited</w>
▁D ivision</w>
w a▁nt</w>
t o▁ry</w>
re▁ st</w>
re po▁rt</w>
n om
m▁ od
i▁s ter</w>
h u▁
go▁ al</w>
ea▁ t</w>
▁u la▁
▁par ▁
▁n ote</w>
▁j um
▁inter ior</w>
▁expen se</w>
▁disclos ed</w>
▁W ill</w>
▁19 6
sp a▁ce</w>
rul i▁ng</w>
pres cri
pas sed</w>
p ti▁on</w>
os ing</w>
or ful</w>
l▁ ast</w>
lo▁ ve</w>
forc eme▁nt</w>
ew oo</w>
c k</w>
art e▁rs</w>
a w▁ay</w>
Ju▁ ly</w>
▁fr aud</w>
▁fe elings</w>
▁bat tery</w>
▁a te</w>
▁R eal</w>
pl us</w>
m▁ ar▁
m yeo▁n</w>
itch en</w>
int egr
g▁ ot</w>
ec▁h n
e t▁s</w>
a▁re a</w>
P ublic</w>
Gwang ju</w>
▁inspec tions</w>
▁Z one</w>
▁E U</w>
wor ds</w>
med▁ ia</w>
all ig
W a</w>
S▁ eo</w>
Bl ue</w>
2 6th</w>
▁tax pay
▁stead ily</w>
▁pain tings</w>
▁p riv
▁deb ut</w>
▁continu ing</w>
▁clim ate</w>
▁c ro
▁M ean
▁K um
wo▁r ld</w>
ow n▁ed</w>
ent l▁y</w>
P ▁u
P al
&a▁pos; d</w>
▁reg ime</w>
▁ran king</w>
▁in her
▁fr▁ ont</w>
▁Coll ege</w>
▁Ar my</w>
re▁l ated</w>
re vis
per cent</w>
me▁d ical</w>
k n▁
it a▁l</w>
er k</w>
dep u▁ty</w>
ac le</w>
P yong
B e
▁tem ple</w>
▁restric tions</w>
▁reg ulatory</w>
▁legisl ation</w>
▁ad ap
z one</w>
por t▁s</w>
m ust</w>
m o▁r
i o▁n
ent age</w>
cons ul
as ting</w>
an▁ other</w>
▁sec re
▁e scape</w>
▁ar chitec
v ices</w>
s▁u n</w>
ri ties</w>
res▁ s</w>
l on▁g</w>
k▁ ers</w>
d▁ irec
b ig
at▁ t
C ou▁n
▁sel ecting</w>
▁res t
▁appro ach</w>
▁accur ate</w>
▁Y un</w>
▁R ural</w>
▁Ch a</w>
tr▁ ict</w>
th in▁g</w>
produc t</w>
pers ons</w>
n ings</w>
mo d▁
f und</w>
er age</w>
dis crim
Je▁ ju</w>
▁un ification</w>
▁sw imming</w>
▁st adium</w>
▁sing ing</w>
▁restor ation</w>
▁re jected</w>
▁h arm
▁chann el</w>
▁allow ance</w>
zbek istan</w>
pec tive</w>
over se▁as</w>
on▁ y</w>
m us▁ic</w>
l▁ ife</w>
larg e▁st</w>
der ▁s</w>
cor rec
b▁ o
In cheon</w>
En▁ g
2 8th</w>
▁sh ow
▁gather ing</w>
▁g aining</w>
▁atten dance</w>
▁accompan ied</w>
ti▁ al</w>
s▁ afety</w>
sel ▁f</w>
res ults</w>
organiz atio▁ns</w>
ij eong
hab ilit
d est
c▁ ar
S chool</w>
C D</w>
▁step s</w>
▁h a▁s</w>
▁exper tise</w>
▁ev ▁
▁er ror</w>
▁ear th</w>
▁clos er</w>
▁aut umn</w>
wh el
s▁ ia</w>
si us</w>
p▁er son</w>
ma i▁n
l og
cur r▁
Univer ▁
K o▁r
Ass e▁m
▁sem in
▁s ick</w>
▁pat ent</w>
▁p ea
▁gr anted</w>
▁Par is</w>
▁C ri
▁3 0
rou d</w>
p ool</w>
f er▁
e h▁
I ▁f</w>
▁part ner</w>
▁ex tingu
▁Gal axy</w>
▁D an
u t▁ion</w>
pl an
f ew</w>
e▁ x</w>
d eath</w>
bu il▁
al▁ ready</w>
&▁ a▁
▁sup posed</w>
▁s c▁
▁fun eral</w>
▁S orry</w>
▁N ong
▁Ac ademy</w>
o▁ pe</w>
issi ons</w>
d e▁l
▁M ajor</w>
▁4 00</w>
p oi▁nt</w>
mo ti▁on</w>
min al</w>
intern ation▁al</w>
id er</w>
d▁ own</w>
driv i▁ng</w>
d ae</w>
cre te</w>
a▁ rou▁nd</w>
ak a</w>
▁strength ened</w>
▁stre ets</w>
▁over l
▁gu ests</w>
▁Se wol</w>
▁D r
ti▁ c</w>
t ech</w>
s am▁e</w>
ir t</w>
h ou▁
gener al</w>
al i▁ty</w>
ac▁ h</w>
G roup</w>
▁s incer
▁1 .5</w>
urr y</w>
ta▁ e</w>
op ed</w>
mo▁ ve</w>
l▁ea d▁er</w>
l ea▁r
gover n▁ment</w>
d aemun</w>
con trib
▁z ones</w>
▁volun tary</w>
▁rem ained</w>
▁p eak</w>
▁offic io</w>
▁mas sive</w>
▁j ournal
▁dest ination</w>
▁Mean while</w>
th▁ ing</w>
th ei▁r</w>
str ong</w>
e▁ ars</w>
con ti▁n
a▁t es</w>
and▁ id
W▁ or
S ub
4 9</w>
▁tea ching</w>
▁contro versi
▁C el
▁Ar ab
star ti▁ng</w>
l ey</w>
j u
il eg
h el▁
e▁r al</w>
bl es</w>
a▁ir s</w>
▁volun tarily</w>
▁l ea▁
with standing</w>
tor al</w>
su ffer
sec uri▁ty</w>
s i▁n
ri▁ se</w>
res erv
pop ul▁ar</w>
op positi▁on</w>
i▁n to</w>
find i▁ng</w>
c▁h a▁irm▁an</w>
at▁ i▁on</w>
an▁ ks</w>
ac ti▁ve</w>
5 2</w>
& am▁p;</w>
▁util ize</w>
▁tea ch</w>
▁prosec utors</w>
▁proc essed</w>
▁inten si
▁inform ed</w>
▁identi fy</w>
▁hol ds</w>
▁displ ayed</w>
▁dis asters</w>
▁c ells</w>
u til
ti▁ l</w>
si o▁ns</w>
p ful</w>
ordin ary</w>
nit ure</w>
ic ations</w>
g ather
chi▁l d
a▁s k</w>
a▁l ity</w>
▁mand atory</w>
▁l ength</w>
▁issu ance</w>
▁fin es</w>
▁fe et</w>
▁dr aft</w>
▁P o
ur▁ ch</w>
s o▁m
p .▁m.</w>
m ov▁
l▁ et</w>
e▁m ber</w>
dep artme▁nt</w>
O▁ ff▁ice</w>
I l
▁sh ips</w>
▁saf ely</w>
▁m ood</w>
▁con clusion</w>
▁chann els</w>
▁A be</w>
sit es</w>
sid ▁e</w>
s e▁nt</w>
ik es</w>
h ol▁
ed g▁ed</w>
▁‘ ‘</w>
▁trans port</w>
▁rec ycl
▁f ake</w>
▁con fron
▁a p▁
▁S ol
▁H w
th w
la▁ w</w>
ic k▁
fu▁ ll</w>
erea ved</w>
duc es</w>
S h▁in</w>
▁un comfortable</w>
▁fir▁ st</w>
▁don ated</w>
▁Ac tress</w>
ul p
si▁ k</w>
ov .</w>
k eep
e▁ w
differ ent</w>
com▁ pl
avo id
▁viol ations</w>
▁s outh</w>
▁favor able</w>
▁exhib itions</w>
▁c y
▁G irls</w>
▁Asi ana</w>
un til</w>
umb ent</w>
s▁t ud
m its</w>
gr and
em er▁
ch o</w>
c ol▁
an c▁ed</w>
J a▁e</w>
▁wea pons</w>
▁st ood</w>
▁p our
▁id ol</w>
▁gr and</w>
▁cancell ation</w>
▁Y eah</w>
ur▁ ing</w>
ul ating</w>
por▁ t
con serv
ch ar▁
Ass ociation</w>
▁ver ification</w>
▁h a▁ve</w>
▁ded icated</w>
▁N orthern</w>
▁Gor yeo</w>
s k▁
m▁ any</w>
gh▁ t</w>
e▁n se</w>
ex chang
b or</w>
▁suppl ies</w>
▁res ulting</w>
▁beg ins</w>
▁St and
▁J eong
tr ic</w>
th ink</w>
res ul▁ts</w>
re ad</w>
p ain
m y▁eon</w>
ie▁ f</w>
exp a▁n
e ig▁ht</w>
▁win ners</w>
▁w est</w>
▁sur prised</w>
▁reg arded</w>
▁politi ci
▁k eeping</w>
▁agric ulture</w>
▁U rban</w>
ucle▁ ar</w>
s man</w>
pr▁ oc▁
pec t▁ed</w>
ond on</w>
in▁ cial</w>
a▁ im
J eon
3 6</w>
,5 00</w>
&apos; ▁
▁win ner</w>
▁k ids</w>
▁gu ard</w>
▁boo k
▁U.S.- China</w>
▁Sou theast</w>
t▁ le</w>
s oc▁
proc ed
me▁ ans</w>
et t▁er</w>
du▁r ing</w>
a▁ u
O rdinance</w>
J a▁ng</w>
G r▁
▁succ eeded</w>
▁r ace</w>
▁fl ag</w>
▁comm unities</w>
▁co ordin
▁br idge</w>
u ted</w>
r▁ o
ind ep
f▁ ter</w>
e▁n ▁
ent▁ r
H ead
▁tim ing</w>
▁rout es</w>
▁an ticip
ver▁ sy</w>
s▁ orr▁y</w>
po▁ sed</w>
o▁m m
j▁ oy</w>
d▁ en
dis app
d ingly</w>
cr▁ ea
as c
ap h
ag e▁s</w>
ag ency</w>
▁sam ples</w>
▁h ur
▁S ociety</w>
▁H eavy</w>
u ting</w>
ti ms</w>
rel eas▁ed</w>
re port▁ed</w>
m et
h▁ igh</w>
go i▁ng</w>
13 th</w>
▁tu ition</w>
▁n arrow</w>
▁f it</w>
▁cor ner</w>
▁calcul ated</w>
▁P OSCO</w>
w▁ ard</w>
su ant</w>
rex it</w>
m▁ at
ew er</w>
elec tr▁
c ulation</w>
H ouse</w>
Ce▁n ter</w>
▁sol ved</w>
▁rec ip
▁p al
▁fil ming</w>
▁an gry</w>
▁aim s</w>
▁Res idents</w>
▁F amily</w>
ne w▁
m on</w>
invest▁ ig
dis ab
ad di▁
Y o▁on</w>
S▁e o▁ul</w>
▁to il
▁person ality</w>
▁li ked</w>
▁inten ded</w>
▁F ur
▁20 ▁
v in▁g</w>
s▁ ing
s e▁d</w>
ou g▁ht</w>
mon t▁h</w>
iss▁u e</w>
if i▁ed</w>
ellec tual</w>
contin ▁ue</w>
caus ▁ed</w>
c us▁
c a▁n
at▁ her</w>
Y ear</w>
O per
B usin
▁tour nament</w>
▁partic ularly</w>
▁or gan
▁her itage</w>
t ype</w>
presid enti▁al</w>
m▁ ental</w>
in c▁l
f▁ ro▁m</w>
en s▁e</w>
em pt</w>
and is</w>
ac ific</w>
Minis try</w>
L G</w>
A ut
2 5th</w>
▁B ig</w>
tr ade</w>
tog eth▁er</w>
ther ▁e</w>
inspec ti▁on</w>
con sid▁
atte▁n t▁ion</w>
▁r ating</w>
▁Independ ence</w>
w o▁men</w>
ur ches</w>
t▁ iv
s▁u ng</w>
st ep</w>
ow ad
op i▁n
me▁m bers</w>
f u▁n
et own</w>
Mar▁ ch</w>
El ec
▁volunte ers</w>
▁veget ables</w>
▁serv ants</w>
▁ab norm
▁W ashington</w>
▁C ustom
t d</w>
r▁ es▁
o▁p ment</w>
mon▁ ey</w>
in te▁
gover n▁or</w>
g ent
ex ten
b ase</w>
anc e▁s</w>
ag▁ ain▁st</w>
A ug
▁um p</w>
▁satis fied</w>
▁refug ees</w>
▁cons ensus</w>
v el</w>
t▁ e▁d</w>
k g</w>
e▁v ent</w>
exc ell
en tives</w>
dr ama</w>
M yung</w>
G od</w>
E ducation</w>
B O</w>
▁par agraphs</w>
▁l ▁
▁happen s</w>
▁au to</w>
▁advertis ements</w>
▁Every one</w>
us hed</w>
sc ale</w>
m u▁st</w>
m ent▁s</w>
is▁h ed</w>
intern at▁ional</w>
erg ency</w>
b er▁s</w>
J oo</w>
▁im ports</w>
▁gradu ate</w>
rece i▁ve</w>
l im▁
h▁ a▁d</w>
h ea▁r
a▁ ti▁
att ach▁ed</w>
angh ai</w>
W omen</w>
Su ppo▁rt</w>
▁thor oughly</w>
▁m o▁n
▁enjoy ing</w>
s old</w>
oy ed</w>
m ag
j oin▁
b re▁
a ul</w>
O c▁
H▁ an</w>
H ae</w>
A pr▁il</w>
2 n▁d</w>
▁th▁ eme</w>
▁ris ks</w>
▁p o▁
▁lif elong</w>
▁k een</w>
▁c at</w>
▁accum ulated</w>
pr ices</w>
om ing</w>
n ation
iv▁ er</w>
hi▁ gh
f▁ er</w>
e▁ um</w>
ea ble</w>
e ived</w>
coun tri▁es</w>
candid a▁te</w>
as ▁s</w>
as k▁ed</w>
an▁ cial</w>
Sam sung</w>
▁sm ile</w>
▁gu est</w>
▁ass igned</w>
tiv ▁es</w>
s ent</w>
promo ti▁on</w>
m▁on th</w>
itt ees</w>
eas e▁d</w>
T▁h is</w>
2 3rd</w>
▁log istics</w>
▁e c
▁bre ad</w>
▁boo ked</w>
▁app oint</w>
▁M or
▁In spec
▁D em
▁Co ast</w>
▁3 6</w>
ur b▁an</w>
pr o</w>
on ight</w>
ener gy</w>
d own
d em▁
cooper ation</w>
at o</w>
G eun</w>
A t
▁vis its</w>
▁s qu
▁ris en</w>
st ing</w>
st able</w>
poli▁ tical</w>
k ish</w>
beg▁ an</w>
ai▁r man</w>
D iv
▁j us
▁comm od
▁categ ory</w>
▁E gyp
▁4 0s</w>
u p▁
t l▁y</w>
re a</w>
p ass</w>
ig er
if ▁e</w>
ar i</w>
▁perc entage</w>
▁advertis ement</w>
▁S uch</w>
▁I ran
ultur ▁e</w>
m▁ us
m e▁nts</w>
ag on</w>
ac ter
L and</w>
▁mob il
▁b id
▁b ar</w>
▁arr anged</w>
u▁ t
u▁ nd</w>
se o▁k</w>
ot h▁
man ufac
d ▁e</w>
c▁l ▁e</w>
S oon</w>
K▁or▁ ea</w>
Chung cheong
▁tex t
▁separ ated</w>
▁lim itations</w>
▁l ink</w>
▁implem enting</w>
▁evalu ate</w>
▁Ital y</w>
wit ter</w>
tr ip</w>
th ou▁gh</w>
st▁ ar
reg is
o▁ u▁t</w>
o▁ i</w>
owad ays</w>
ous▁ ly</w>
o ti▁
m▁ ittee</w>
en a</w>
ar res
ad j
O s</w>
Adminis tr▁
▁withdraw al</w>
▁w ild</w>
▁s inc▁e</w>
▁recor ding</w>
▁h idden</w>
▁gener ated</w>
▁boy friend</w>
s▁ oon</w>
se qu
s ev
r▁e t▁
m i▁s
l▁ aw
here in
e▁ ri
emb l▁y</w>
du▁ ct</w>
du ▁e</w>
diff▁ic ▁ult</w>
b oo▁
ati cs</w>
S NS</w>
▁w alls</w>
▁mess ages</w>
▁certif ied</w>
▁ass istance</w>
▁Mar itime</w>
▁L un
ru m▁p</w>
p▁ar ty</w>
in s▁
h our</w>
S um
▁tar iff</w>
▁st om
▁s ix
▁in stitutes</w>
▁S ure</w>
▁Inv estig
ti zens</w>
sur ed</w>
progr am</w>
o▁ le</w>
o▁ ff▁ice</w>
on able</w>
der ▁ed</w>
bec a▁me</w>
ap prov
Th▁ at</w>
C entr▁al</w>
7 5</w>
▁un ve
▁th e▁ir</w>
▁p ul
▁c ou▁ld</w>
▁Pl anning</w>
▁ try</w>
r▁ ed
od es</w>
ital ization</w>
il ty</w>
enti ally</w>
b▁ e▁
a he▁ad</w>
E P
▁smo othly</w>
▁sett led</w>
▁ph ase</w>
▁l ibr
▁gener ations</w>
▁fr▁ om</w>
▁demonstr ation</w>
▁deep ly</w>
▁ass oci
▁adj ustment</w>
▁R ob
▁L iber▁ty</w>
tern s</w>
s ile</w>
s eas
oper▁ at▁ion</w>
az ak
▁slow down</w>
▁low ered</w>
▁l ab
▁c a▁n</w>
tu s</w>
par k</w>
i▁d ent</w>
f a▁r
d iv▁
ak arta</w>
M i</w>
▁sit ting</w>
▁min or</w>
▁illeg ally</w>
▁g ri
▁f erry</w>
▁c au
▁c argo</w>
▁S oon</w>
▁My anmar</w>
um ul
t▁ ae</w>
s▁ enior</w>
sus pen
sur ▁e</w>
si tion</w>
sen ior</w>
in▁ ter
di rec▁
dec lar
con▁ t
b ir▁
a ver
G overnor</w>
3 9</w>
1 6th</w>
▁v otes</w>
▁str ange</w>
▁restric ted</w>
▁O b
▁Do osan</w>
▁Ch un
▁CC TV</w>
tun ately</w>
th ose</w>
os c
mark ets</w>
l▁i k▁
iv ▁es</w>
f▁ ir▁
f il▁
en▁ ti
el l▁
dam age</w>
al ▁e</w>
A g
▁m erg
▁const antly</w>
▁bo ost</w>
▁2 .
wo▁r king</w>
t▁ ic▁le</w>
ri▁s k</w>
pea ce</w>
pan ish</w>
p rivate</w>
m ember</w>
enc our
ed en</w>
e ung
du ty</w>
d rew</w>
c▁ ri
cre a▁te</w>
20 0▁
▁tempor arily</w>
▁kilom eters</w>
u g▁
lead i▁ng</w>
f ound</w>
▁tur ns</w>
▁lux ury</w>
▁b io</w>
▁Ex change</w>
▁&a▁ pos;s</w>
t▁ ment</w>
s aying</w>
r ank
p▁l ace</w>
pa▁ ss
m▁u ch</w>
j▁ ust</w>
j u▁ng</w>
in qu
et w▁
envir o▁n
cl ub</w>
a▁ r▁
as sed</w>
announ c
aff ili
P▁ l
▁some what</w>
t▁ on</w>
trad ition▁al</w>
rep▁ or▁ted</w>
pe▁ opl▁e</w>
p oin▁
os eong</w>
okes man</w>
inter est</w>
dem a▁nd</w>
c ou▁rt</w>
P o
L ife</w>
D P</w>
Arti c▁l▁e</w>
▁st ance</w>
▁pl▁ ace</w>
▁pas sion</w>
▁cl oud</w>
▁bu reau</w>
▁b ereaved</w>
▁b eef</w>
▁abund ant</w>
▁S ur
▁2 ,000</w>
w ee▁
s▁ a▁id</w>
pre▁ ad</w>
ou t▁
ol ate</w>
l ad
ien t▁ed</w>
em y</w>
del i▁
conduc t▁ed</w>
Tr u▁mp</w>
R A
D evelop
Bl ▁ue</w>
▁ur ged</w>
▁sub ordinate</w>
▁st ayed</w>
▁scholar ship</w>
▁mar ks</w>
▁collap sed</w>
w▁h er▁e</w>
un i
se▁ en</w>
pro mis
politi c▁al</w>
ep t▁
c am
b▁ est</w>
ach eon</w>
1 7th</w>
▁u t▁ion</w>
▁tre at</w>
▁an ti
▁S o
▁Jeoll anam</w>
▁Conf uc
partic i▁
organiz ati▁on</w>
hw a▁n</w>
ey ed</w>
bet▁w een</w>
az ing</w>
ab uk</w>
, 3
▁sec ondary</w>
▁res truc
▁res erve</w>
▁m ission</w>
▁inc umbent</w>
▁c ircles</w>
▁b ow
▁V alley</w>
v ate</w>
ur ▁es</w>
ti▁ n▁g</w>
si▁ a</w>
over ▁
or▁ es</w>
iv alent</w>
f ound
ed ▁uc
e y▁
differ e▁nt</w>
de▁v el
az ine</w>
ap▁ ed</w>
am e▁s</w>
S ong
Associ ati▁on</w>
2 2nd</w>
▁loc als</w>
▁W ater</w>
▁St adium</w>
w al
v ent</w>
t arg
he▁ l▁d</w>
eti n</w>
er in▁g</w>
environ me▁nt</w>
c over</w>
St ates</w>
4 2</w>
▁tr uck</w>
▁pos s
▁m ir
▁character ized</w>
▁abs ence</w>
▁S u</w>
▁Jeon ju</w>
um ed</w>
st yle</w>
or ient▁ed</w>
l es▁s</w>
j ang</w>
g i
d ings</w>
ag eous</w>
ag a▁in</w>
O n
Fed er
▁se ver
▁revital ize</w>
▁rain y</w>
▁beh alf</w>
▁M ike</w>
rev eal▁ed</w>
reg ar
r or
pro gr▁am</w>
i▁t al</w>
ig h▁er</w>
foll ows</w>
e▁ r▁
en ty</w>
au gh</w>
T ai
▁w ooden</w>
▁respon ded</w>
▁prov ision</w>
▁kn ows</w>
▁in sufficient</w>
▁extre m
▁expl ains</w>
▁as sum
▁Yong san</w>
▁U zbekistan</w>
w el▁l</w>
vi o▁l
oin ting</w>
m ilitary</w>
fu▁ l</w>
e▁ar ch</w>
ex hib▁
em a</w>
de f▁
a▁p an</w>
a▁ t▁e</w>
ai▁ l
U▁ .S.</w>
Un iv▁er
Intern at▁ional</w>
▁t op
▁piec e</w>
▁liter ature</w>
▁ex haus
▁di e</w>
▁civ ilian</w>
▁N ew
▁M ok
▁Air lines</w>
previ o▁us</w>
pa▁r ty</w>
m or▁
if ic▁
g lobal</w>
dec ision</w>
ch ▁es</w>
av ed</w>
ad d▁ed</w>
Y u</w>
Ch a▁irm▁an</w>
▁vis ion</w>
▁fre edom</w>
▁cre d
▁ch osen</w>
wh er▁e</w>
un▁ g
t▁ri es</w>
pur▁ su▁ant</w>
prosec ▁ution</w>
pp o▁r
in jur
i w
es s▁ed</w>
K▁or e▁an</w>
5 5</w>
▁scor es</w>
▁g ▁
▁e ast</w>
yw ood</w>
ustain able</w>
ual ties</w>
o▁ to</w>
n▁ ess</w>
n et
m▁ is
mat ters</w>
j▁u d
il i▁
e▁ p
exp a▁nd</w>
di▁ rec
ch all
Se ok</w>
▁so il</w>
▁sc enery</w>
▁main taining</w>
▁ex cluding</w>
▁co ol
▁Al ong</w>
▁&apo▁s ;▁s</w>
ul ▁ed</w>
t otal</w>
re plac
oc c▁
gu es</w>
ex▁ c
eli hood</w>
ca▁ p
am ber</w>
D i▁
4 6</w>
2 4th</w>
▁st ages</w>
▁repea ted</w>
▁off ers</w>
▁hel icop
▁b ond</w>
▁G ar
▁C er
v id▁eo</w>
t▁r y▁ing</w>
th rou▁
sa▁ yin▁g</w>
pos sib▁le</w>
ow e▁d</w>
me▁ eting</w>
inform▁ ation</w>
ex pr▁
d▁ el
direc t</w>
Y▁ oo</w>
▁sens itive</w>
▁s or▁ry</w>
▁s ew
▁pr o</w>
▁m ass
▁fac tories</w>
▁certif icates</w>
▁b ath
▁ab sol
▁El ementary</w>
sex u▁al</w>
pop ul▁
n ex▁t</w>
i▁ onal</w>
for ced</w>
estab li▁
enterpris ▁es</w>
b ang</w>
Su pre▁me</w>
N G</w>
C▁h e▁ong</w>
Ch ung</w>
▁work place</w>
▁rail way</w>
▁o d
▁minis try</w>
▁c ab
▁answ ers</w>
▁analy zing</w>
▁a g▁
▁Hwas eong</w>
tr ans▁
se▁ e</w>
pos▁ it▁ion</w>
ot▁ ion</w>
l in</w>
i z</w>
g ok</w>
ene z
c▁ ess</w>
c ou▁
appro priate</w>
G an▁g
F C</w>
A t</w>
4 4</w>
201 4</w>
▁r i▁ght</w>
▁n orth</w>
▁cons ult</w>
▁c ust
▁Th ursday</w>
▁B ucheon</w>
po▁ s▁
gr ade</w>
eng er</w>
ap es</w>
H a▁n
G ro▁up</w>
C E▁
A ▁s</w>
3 0th</w>
▁prom ise</w>
▁per manent</w>
▁l ed
▁fea sibility</w>
▁2 8
s el</w>
ir▁ ae</w>
ind▁us try</w>
d ay▁s</w>
cr isis</w>
c oll▁
▁produc ing</w>
▁pres ervation</w>
▁mo is
▁let ters</w>
▁cl erk</w>
▁academ y</w>
vid eo</w>
sib ilities</w>
s uring</w>
s pon
l▁ ittle</w>
int▁ ern
inst all
de t▁
ct u▁re</w>
compar ▁ed</w>
ch o
Hy ▁un
▁sc andal</w>
▁indic ators</w>
▁e n▁
▁dem entia</w>
▁K oo</w>
▁J ohn</w>
▁H ong
▁Com pared</w>
▁5 ,000</w>
▁3 ,000</w>
ther e
qu arter</w>
olo▁g ical</w>
it ch</w>
gr at
ful▁ ly</w>
en▁ tial</w>
ch a▁ng
a▁p p▁
ar▁ k</w>
F r▁
C ▁up</w>
▁fun c
▁Not withstanding</w>
▁Con trol</w>
▁2 7
tr ust</w>
sti ce</w>
s ter</w>
res sion</w>
pl ied</w>
manag e▁ment</w>
iz a▁tion</w>
in i▁ng</w>
fe▁ el</w>
eep s</w>
ec tions</w>
c▁ enter</w>
chai▁r m▁an</w>
b a▁se</w>
M▁ inis
Eng lish</w>
4 7</w>
▁small er</w>
▁ser iously</w>
▁res idence</w>
▁n oodles</w>
▁fun ding</w>
▁ex actly</w>
▁M od
▁H ousing</w>
▁Eng land</w>
r ail
com▁ pany</w>
Q u
▁review ing</w>
▁ob ser
▁en treprene
▁anx iety</w>
▁F isheries</w>
▁A g
▁2 6
ven ti▁on</w>
uc k
rais ▁ed</w>
per▁ ty</w>
partic ▁ular</w>
om er
inter n▁
e▁nt al</w>
er▁ ce</w>
end ship</w>
design at▁ed</w>
co in</w>
b ul
ay a</w>
▁I D</w>
▁Han oi</w>
t▁ e▁r</w>
s▁ ome</w>
r▁e port</w>
r a▁n
pers o▁ns</w>
me▁ etin▁g</w>
l ev
l at
ff▁ ic</w>
e▁ o</w>
e▁ er</w>
em ployees</w>
direc tly</w>
dev▁ el
comm er
can n▁ot</w>
ag ram</w>
ac▁ k
▁thous ands</w>
▁h ate</w>
▁estim ate</w>
▁disp utes</w>
▁consider able</w>
s▁ elf</w>
stit u▁
sec urity</w>
res sing</w>
r on</w>
ow in▁g</w>
ind u▁
il ▁ed</w>
ey es</w>
eff ect</w>
compl▁ ex</w>
comm▁ ittee</w>
c iti▁es</w>
Repres ent▁
Pro moti▁on</w>
Dep u▁ty</w>
▁pre cious</w>
▁oper ates</w>
▁mul ticultural</w>
▁harm ful</w>
st ep
s af
re por▁
r igh▁ts</w>
pr▁o ject</w>
mon t▁hs</w>
it ability</w>
econ o▁my</w>
de ok</w>
In stitute</w>
In fras
E co▁n
; ll</w>
▁dre ams</w>
▁A ward</w>
wi▁ fe</w>
ultan e
u a▁l</w>
no▁ un
me an▁s</w>
ill ing
h oo▁n</w>
e▁ at</w>
ee▁ l</w>
a eb
P e
O ct
H ou▁se</w>
Gover n▁ment</w>
▁sub committee</w>
▁pres ence</w>
▁mat ches</w>
▁l ights</w>
▁c utting</w>
▁M ilitary</w>
sing le</w>
pr▁o f▁
ot ten
minis t▁er</w>
me▁ as
in struc
ex chan▁ge</w>
er as</w>
areun mirae</w>
am▁ p
Hw a▁ng</w>
&▁apo▁s ;t</w>
▁ex ist</w>
▁dist ingu
▁d eal
▁S um
▁3 8</w>
var▁ ious</w>
u▁s h</w>
ul ▁t</w>
rou▁ ps</w>
ron ic</w>
p y</w>
memb er▁s</w>
lis ▁
i▁c al</w>
iver s</w>
iv e▁d</w>
e e▁d</w>
Ch in▁a</w>
C u▁l
4 3</w>
▁targ ets</w>
▁sm ell</w>
▁l ong
▁for ms</w>
▁f ail</w>
▁M er
▁G ood</w>
▁B ible</w>
w ing</w>
un▁ ch</w>
sh ip
pos sib▁
n ear</w>
n as
i rel
ex c▁
contr a▁ct</w>
comm uni▁ty</w>
ci t▁y</w>
ch▁ eon</w>
U l
2 9th</w>
▁up coming</w>
▁the ory</w>
▁st ates</w>
▁ref used</w>
▁occ as
▁mur der</w>
▁m ission
▁institu tional</w>
▁di et</w>
v▁ al
ul▁ ture</w>
st▁ op</w>
s ay▁ing</w>
oo▁ ds</w>
m▁ ea
i o▁d</w>
f ar▁
esti▁ g
em ploy▁
ch ec
Sp▁ ec
S c▁h
▁repea tedly</w>
▁op posite</w>
▁b on
▁R ed</w>
▁Is n</w>
▁C J</w>
s il
pl ant</w>
h▁ yun</w>
hear t</w>
ex p▁l
enti ve</w>
dus try</w>
direc t▁ly</w>
a▁l es</w>
ac ti▁v
a c</w>
20▁1 9</w>
▁prot est</w>
▁f ever</w>
▁P ur
▁Chungch eong
▁A uthor
und▁ ai</w>
r ice</w>
q▁u e</w>
pr▁ ot
mov ie</w>
h and</w>
fr▁ o▁m</w>
ep age</w>
en c▁ed</w>
d i▁c
d a▁te</w>
c old</w>
▁op posed</w>
▁mon etary</w>
▁gir lfriend</w>
▁b ear</w>
▁S panish</w>
▁F u
▁Afr ica</w>
sec reta▁ry</w>
pro j▁
min u▁te</w>
l▁ ook</w>
j oint</w>
e▁ ds</w>
ar▁t m▁ent</w>
appl i▁ed</w>
ad▁ v
W elfa▁re</w>
G eum
Direc t▁or</w>
DA Q</w>
▁util izing</w>
▁b odies</w>
w ife</w>
val ▁ue</w>
p▁ ur
li▁ ve</w>
gr i</w>
es el</w>
ch il▁d
bl▁ em</w>
▁mis sed</w>
▁f ab
▁a im</w>
ti m</w>
te▁ ch</w>
su▁ it</w>
or es</w>
och ang</w>
ir s</w>
eff or▁ts</w>
a ise</w>
Ph one</w>
▁spec t
▁re views</w>
▁con g
▁aband oned</w>
▁H a
▁5 0s</w>
wi▁ de</w>
t▁ oo</w>
tr av
s▁m all</w>
s▁ ay</w>
sh ap▁ed</w>
probl ems</w>
pay me▁nt</w>
mis si▁on</w>
im in
ex isti▁ng</w>
c or▁
ac ti▁on</w>
▁sti p
▁prob ably</w>
▁cons ist
▁cl othing</w>
▁U K</w>
u▁s s</w>
truc tion</w>
tr i▁ll
m an▁y</w>
l▁ ea▁
iti▁ ve</w>
hos t▁ed</w>
con tribu
am un</w>
P▁ olice</w>
J ▁u
▁prom p
▁out come</w>
▁franch ise</w>
▁fol k</w>
▁ear n</w>
▁crack down</w>
▁comp ete</w>
▁car bon</w>
▁Her itage</w>
w▁ i▁ll</w>
w ear</w>
s▁ exual</w>
s ection</w>
pre dic
i us</w>
g yo</w>
establis ▁h
draw i▁ng</w>
a▁ ys</w>
D▁ ep
▁qual ification</w>
▁fre e
▁di alogue</w>
vi ol▁
u▁ g
ici ans</w>
ic ▁t</w>
h ou▁rs</w>
g▁ roup</w>
fun▁ ds</w>
c▁ ame</w>
c ut</w>
at▁ io▁ns</w>
ai▁ ly</w>
H a▁ll</w>
&apos; m</w>
▁subscri ption</w>
▁fac ed</w>
▁fa ith
▁P or
sh al▁l</w>
se e▁ms</w>
p▁ port</w>
man t
il▁ lio▁n</w>
em phas
e u▁n</w>
bo▁ ok</w>
ak ▁e</w>
▁uncer tain
▁recru it</w>
▁enti ty</w>
▁b e▁
▁S enior</w>
▁S al
▁Gim po</w>
▁Cel sius</w>
t me▁nt</w>
spec i
ra th▁er</w>
min utes</w>
l angu
j▁ ae</w>
fo▁ ll
ell i▁ng</w>
Sec uri▁ty</w>
S o▁ng</w>
P▁u blic</w>
In t▁ern
▁un expected</w>
▁s ounds</w>
▁k itchen</w>
▁investig ations</w>
▁cont ain</w>
▁cal culation</w>
▁J u</w>
un▁ der</w>
un i▁
ul▁ d</w>
r▁ oom</w>
mit ting</w>
ic als</w>
gover▁n me▁nt</w>
fun ds</w>
el ine</w>
diff i▁c
cl o▁se</w>
ak ed</w>
a os</w>
3 r▁d</w>
▁win ds</w>
▁subscri bers</w>
▁ab sor
▁V ol
▁Th ai</w>
ta in▁
t old</w>
s▁ ik</w>
sea s▁on</w>
rec▁ ently</w>
b▁u s</w>
ang ible</w>
J o▁ng</w>
Ch ang
Ass▁ embly</w>
5 G</w>
▁t or
▁memb ership</w>
▁manufactur ers</w>
▁hel pful</w>
▁har mony</w>
▁d i▁
view ers</w>
spe▁ ed</w>
rev ital
ret u▁rn</w>
prosec ution</w>
pol ici▁es</w>
of▁f ice</w>
man a▁g
in ev
d riv▁
ch i▁ld</w>
act▁ iv
R▁ es
C ultur▁al</w>
1 1▁
▁se ts</w>
▁pres erv
▁neighbor hood</w>
▁Offic ials</w>
▁M ir
so▁ ld</w>
e▁n ed</w>
diff▁er ent</w>
competi ti▁on</w>
S eptember</w>
R▁ W</w>
H eal▁th</w>
▁w astes</w>
▁thor ough</w>
▁t ears</w>
▁str onger</w>
▁rev olution</w>
▁har assment</w>
▁gener ally</w>
u▁ le</w>
stor es</w>
se ver
re ported</w>
m i▁ng</w>
in t▁o</w>
h yeon</w>
e▁ ge</w>
du▁r in▁g</w>
S a▁
A c▁
19 9
▁rob ot</w>
▁h ired</w>
▁dis position</w>
▁cul tures</w>
▁ on</w>
v▁ en
sen s
s por▁ts</w>
pr ising</w>
perfor▁m a▁nce</w>
occ up
ir ty</w>
ig▁h ts</w>
househ ol▁ds</w>
est ors</w>
ess i▁on</w>
en er▁gy</w>
com i▁ng</w>
c er</w>
b▁ec ome</w>
Se ong</w>
Gy▁eong gi</w>
▁tr ain
▁ind oor</w>
▁eng ineering</w>
▁deliber ate</w>
▁bea t</w>
▁C ath
w▁ ould</w>
wh▁ eth▁er</w>
ti▁v al</w>
su▁ res</w>
ov el</w>
ous ▁e</w>
in▁ t▁o</w>
ib▁ er
expl ained</w>
bu▁ d
a▁ round</w>
acc o▁rd▁ing</w>
Serv ice</w>
I A</w>
H er
G A</w>
D es
▁serv ing</w>
▁s ik</w>
▁fi refigh
▁achiev ements</w>
▁Sh ow</w>
v▁ ice</w>
sur v▁ey</w>
re▁ su▁l
re port
r y
op hy</w>
h▁ ealth</w>
e▁n ing</w>
R o▁
K T</w>
4 t▁h</w>
▁subsid iary</w>
▁scen es</w>
▁par ks</w>
▁impres sive</w>
▁acqu aint
▁Th eir</w>
u▁n g
uc tu
ow ns</w>
f ety</w>
e▁r a</w>
e tr
cl u▁
ativ ▁es</w>
▁ula▁ r</w>
▁t un
▁t o▁t
▁sen iors</w>
▁p ool</w>
▁m o▁
▁m ay
▁hea ting</w>
▁gradu ates</w>
▁fl u
▁c ycle</w>
▁accommod ation</w>
▁Pre viously</w>
▁In novation</w>
▁F our</w>
▁Dis aster</w>
qu es▁
off i▁c
n ia</w>
mor ni▁ng</w>
if i▁c
h im
en th</w>
ea▁ l
des ign</w>
dam a▁ge</w>
curr ent▁ly</w>
ches tra</w>
be▁ fore</w>
ana▁l y
ag▁ ement</w>
ad em▁
Am eric
▁strateg ic</w>
▁prefer ential</w>
▁j oy</w>
▁chea p</w>
▁0 0</w>
w ri
treat me▁nt</w>
to▁ ld</w>
s ign▁
po▁l icy</w>
parag ra▁ph</w>
p ubl▁
m ent
itt▁ le</w>
f requ
e▁ ws</w>
exper ience</w>
ess e▁d</w>
er ial</w>
c▁h a▁nge</w>
aw ar
announ c▁
▁typ ical</w>
▁sh el
▁r ock</w>
▁ir reg
▁inst alling</w>
▁inc entives</w>
▁cur ious</w>
▁D rug</w>
w ak</w>
us▁ ing</w>
us e▁d</w>
ur g
t▁ ional</w>
s▁ id
som ▁e</w>
resp▁ on
our▁ th</w>
m emor
ee ing</w>
e ul</w>
bas▁ ic</w>
a▁l k</w>
a ur
H i▁gh</w>
▁strugg ling</w>
▁p roud</w>
▁m oon</w>
▁attrac tions</w>
▁P C</w>
▁Mongol ia</w>
t▁ic le</w>
sti▁ t
st ar▁
mi▁ll i▁on</w>
i▁s su
in▁ cluding</w>
f igh
ex erc
e ing</w>
c ent
an im
▁writ er</w>
▁man power</w>
▁In dian</w>
ran ki▁ng</w>
organiz ▁ed</w>
om estic</w>
ne eded</w>
ill eg▁al</w>
foll▁ owing</w>
dis clos
di r▁ec▁
d e▁r
O K</w>
H ak</w>
B a▁nk</w>
▁r oll
▁post pon
▁fundam ental</w>
▁equ ity</w>
▁em otional</w>
▁ear ned</w>
▁R ight</w>
▁K O
▁J oint</w>
▁B MW</w>
▁ ic</w>
▁ ati▁on</w>
un ch</w>
tem por
s▁ k
f▁u ture</w>
e▁ et</w>
exper▁ ts</w>
dec▁ is▁ion</w>
cil or</w>
avil ion</w>
an▁ ces</w>
In st▁it
G e▁n
Con struc
201 3</w>
▁tre at
▁su fficient</w>
▁o x
▁i s▁
▁equ ivalent</w>
▁cri tical</w>
▁c ook</w>
▁break fast</w>
▁arti stic</w>
▁F SS</w>
▁Ch un</w>
z h
u▁ k</w>
sp ir
ph ys
par t▁
p sych
ott en</w>
m▁ ost</w>
hib ition</w>
c a▁m
a▁b ou▁t</w>
Da egu</w>
B i
▁util ization</w>
▁qu ar
▁pl▁ ans</w>
▁Gyeongsang nam</w>
▁3 7</w>
pr▁oc▁ ess</w>
ma▁ il</w>
lea der</w>
inter pre
fin ancial</w>
bur s
F or</w>
Ch airman</w>
▁stat ements</w>
▁practic es</w>
▁Tu esday</w>
▁Th ough</w>
▁K wang</w>
▁H ol
p▁ ar▁
par ents</w>
o▁u th</w>
h aps</w>
ef▁ t</w>
eff e▁ct</w>
cre ate</w>
a▁ir▁ man</w>
an t▁
air▁ man</w>
Or din▁
▁viol ating</w>
▁prom ising</w>
▁f ro
▁differ enti
▁6 00</w>
w elfare</w>
v ▁ed</w>
streng th
str u▁c
partic i▁p
lif ▁e</w>
iz ure</w>
end ers</w>
cr ime</w>
cer e▁m
b at
ag ue</w>
ab ou▁t</w>
F▁ r
▁t ot
▁nur sing</w>
▁i m▁
▁ex it</w>
▁el ev
▁M ac
▁B areunmirae</w>
ye▁ ars</w>
p i▁te</w>
oot ball</w>
eval u▁
en▁ ted</w>
du▁ st</w>
contr▁ ol</w>
char g▁es</w>
c ol▁l
anm unj
allig rap
Chair pers▁on</w>
A ugust</w>
▁so ftware</w>
▁rev ise</w>
▁not ed</w>
▁mut atis</w>
▁inten sive</w>
▁grad uation</w>
▁b r▁
▁b an</w>
▁acqu ired</w>
▁Wor kers</w>
▁P a▁rty</w>
sup p▁ly</w>
pu b▁lic</w>
n i</w>
iz za</w>
is ▁e</w>
ing dom</w>
incre ased</w>
d oes</w>
a▁ ff
al▁ y
P▁ ro
H o</w>
▁th ea
▁sharehol der</w>
▁norm ally</w>
▁k illing</w>
▁assaul ted</w>
wor▁ ks</w>
r▁ an</w>
m▁ on▁
m▁ ents</w>
k eep</w>
import a▁nt</w>
ih eung</w>
i el
f u▁r
dr▁ en</w>
dis p
develop▁ ed</w>
dem onstr
con feren▁ce</w>
ch eck</w>
at o▁rs</w>
al▁ led</w>
ab o▁r</w>
Y eon
Pri▁ me</w>
▁rest ore</w>
▁pen insula</w>
ther more</w>
tak ▁en</w>
t yp
st an</w>
prov id▁ed</w>
produ▁ ct</w>
o ons</w>
l er</w>
ist e▁r</w>
e el
b▁ ased</w>
an ches</w>
all et</w>
Na▁ tional</w>
G ove▁rn
A D</w>
▁s om
▁kn owing</w>
▁a d▁
▁T er
▁Sh anghai</w>
▁H er</w>
tal ks</w>
s▁ ing</w>
sc ene</w>
p oints</w>
mid d▁le</w>
i▁t te▁e</w>
in ery</w>
fac ts</w>
c▁h an▁ge</w>
as hed</w>
acc ident</w>
5 ,000</w>
▁w estern</w>
▁rec ession</w>
▁mak eup</w>
▁gir ls</w>
▁form ation</w>
▁accoun ted</w>
res pec
ploy ed</w>
ook min</w>
oo ked</w>
ol▁ ve</w>
of▁ f</w>
l ig▁ht</w>
ic▁ ts</w>
agric ultur▁al</w>
▁pr▁ o
▁mut andis</w>
▁hon orary</w>
▁destro yed</w>
▁controversi al</w>
▁compl icated</w>
▁c and
▁B ae</w>
tur ▁al</w>
th e
ri d</w>
r al</w>
ov▁ ern
l iving</w>
j oo</w>
ios ity</w>
du▁ ced</w>
dep art
cas ▁e</w>
c a▁rs</w>
a ze</w>
0 5</w>
▁construc ted</w>
▁co al</w>
s tic
pr▁ ep
min ent</w>
invest ment</w>
etw▁ een</w>
e ye</w>
b ar
ar ▁t</w>
T o</w>
Serv i▁ce</w>
Prov i▁ncial</w>
A ir</w>
5 3</w>
▁r om
▁observ ed</w>
▁earn ings</w>
▁conf usion</w>
▁an cient</w>
▁Wo ori</w>
t▁ ors</w>
tr illi▁on</w>
s▁ ite</w>
r ain</w>
par ki▁ng</w>
o▁ k
ou ts</w>
oth s</w>
ol es</w>
iqu es</w>
ijeong bu</w>
d▁ it</w>
d on▁
c▁ are</w>
Pro▁v inc▁e</w>
Comm i▁ss
▁w illing</w>
▁propos als</w>
▁med al</w>
▁fru its</w>
▁f ighting</w>
▁effec tively</w>
▁Some times</w>
▁L ondon</w>
sh▁ all</w>
s ea▁
rup ted</w>
ro o▁m</w>
ow▁ s</w>
is▁ h</w>
il▁ d</w>
i at
h op▁e</w>
diff e▁r
civ il</w>
S elf</w>
Ch u▁ng</w>
Agric ultur▁al</w>
▁t end</w>
▁m arg
▁crow ded</w>
▁com fort</w>
▁cas ualties</w>
w ri▁
v▁ er
tr av▁
s ev▁en</w>
s ep
our c▁es</w>
or ney</w>
m ly</w>
in e▁d</w>
ili ation</w>
id en▁ts</w>
competi tion</w>
ang ▁e</w>
additi on▁al</w>
Unive▁r sity</w>
O l
▁strateg ies</w>
▁moun tains</w>
▁hop ed</w>
▁d ur
▁b o▁
▁ad mitted</w>
▁Gang seo</w>
t ude</w>
t el
ro ads</w>
minim ▁um</w>
m un</w>
h appy</w>
gh ts</w>
es is</w>
d▁ ef
appear ▁ed</w>
Y ork</w>
Sh in
P op</w>
F o▁reign</w>
▁sl eeping</w>
▁reg ularly</w>
▁gre en
▁celeb rities</w>
th i▁nk</w>
te▁ ll</w>
sp ea
s un
ris k</w>
re▁ en</w>
j un</w>
ga▁ ve</w>
O ctober</w>
D e
▁p ow
▁mov es</w>
▁expec tation</w>
▁correspon dent</w>
▁achiev ement</w>
▁Reg ional</w>
ot▁ te</w>
n ig▁ht</w>
k e▁t</w>
▁supplem entary</w>
▁sav ings</w>
▁fac es</w>
▁charg ing</w>
▁cap abilities</w>
▁Se o▁ul</w>
▁P astor</w>
▁11 9</w>
w a▁n</w>
tin ue</w>
pre▁ vious</w>
or g▁an
mark e▁t</w>
ic ▁ed</w>
eg ae</w>
de ung
St ati▁on</w>
M a▁
▁week ends</w>
▁the i▁r</w>
▁spec ies</w>
▁rum ors</w>
▁mon itor</w>
▁m agn
▁fur niture</w>
▁every day</w>
▁ass embly</w>
▁Olymp ic</w>
▁Ad ministr
un▁ ity</w>
ta i▁n</w>
t ex
qu a▁r
oper ati▁ng</w>
o ked</w>
in iti
i al▁ly</w>
h▁ wa</w>
ev en▁ts</w>
con▁ cer
a ju</w>
▁pr ay</w>
▁over whel
▁g all
▁dea ths</w>
▁child birth</w>
▁adj usted</w>
▁T aek
▁M u
▁Gyeongsang buk</w>
t aken</w>
resid enti▁al</w>
r i▁ce</w>
ow ned</w>
ok do</w>
metropol it▁an</w>
mat h</w>
lo▁ st</w>
i▁ sion</w>
g rou▁nd</w>
f a▁ct</w>
ett e▁r</w>
en▁ ded</w>
an ymore</w>
St a▁te</w>
L ocal</w>
E▁ x
▁notif ication</w>
▁l e▁v
▁k eeps</w>
▁Mr .
xim ately</w>
s▁ eo</w>
si t▁e</w>
s afe</w>
over s</w>
fr aid</w>
ew or
di e</w>
c eful</w>
bec o▁m
b an
al rea▁dy</w>
ai▁ ls</w>
▁qu iet</w>
▁m igr
▁exc eeding</w>
▁cont ained</w>
▁att emp
▁W ith
▁Lun ar</w>
▁Iran ian</w>
▁B ang</w>
▁Ac ts</w>
▁1 20</w>
th ▁s</w>
st o▁re</w>
r▁ ight</w>
re▁g ular</w>
resid ent▁s</w>
pl a▁n</w>
ow ners</w>
jec t▁s</w>
d▁ er
do▁ or</w>
cl▁ os
c y
b itr
Y e▁
P▁ ol
▁wh i▁le</w>
▁refl ecting</w>
▁for get</w>
▁counter measures</w>
▁U l
▁Aud it</w>
tra ordinary</w>
s anc
pea ch
j ak</w>
i▁c k</w>
int▁er▁ est</w>
in a▁ry</w>
ie▁ ve</w>
i enc▁e</w>
i ate</w>
gu k</w>
avoid able</w>
ai▁n ed</w>
▁ver ify</w>
▁sac rif
▁re ference</w>
▁prom otional</w>
▁doc tors</w>
▁but ton</w>
▁ac compl
resid ential</w>
pr o▁t
ill io▁n</w>
if▁ ic
h ak</w>
fam ili▁es</w>
fam iliar</w>
et ti▁ng</w>
el▁ fare</w>
co▁ un▁
con f▁ir
bui▁l t</w>
Con f
A l▁
▁work shop</w>
▁th▁ ink</w>
▁tal ented</w>
▁rem in
▁orig in</w>
▁fri ed</w>
▁contr ary</w>
▁c ute</w>
▁M BC</w>
▁Is ra
ten ing</w>
r▁ ole</w>
produc tion</w>
ou t▁h</w>
m yung</w>
e▁as y</w>
eph one</w>
d▁ ays</w>
devel▁ op</w>
ar▁ ound</w>
ap p▁l
am ▁s</w>
M A</w>
▁un known</w>
▁un employment</w>
▁review ed</w>
▁refl ects</w>
▁l ot
▁har v
▁ch urches</w>
▁L ake</w>
▁I l</w>
▁Con stitutional</w>
op pos▁ition</w>
m en
it ably</w>
ic tion</w>
en▁ tly</w>
comp▁an ie▁s</w>
bi▁ll i▁on</w>
as ▁e</w>
al ism</w>
Y a▁ng</w>
Gang n▁am</w>
D▁ ae</w>
▁th e▁y</w>
▁ship ped</w>
▁c able</w>
▁Jin ju</w>
▁H ist
▁Chung nam</w>
▁20 22</w>
you▁ th</w>
se▁ nd</w>
sch▁ ed
r▁ ap
r ors</w>
pr▁ov ide</w>
per▁ sonal</w>
on ers</w>
exp e▁n
elec tions</w>
con vers
b ri▁
af tern
C▁ on
&▁a pos▁;t</w>
▁stud io</w>
▁ref un
▁per spective</w>
▁lik es</w>
▁el ements</w>
▁d ress</w>
▁G un</w>
▁For ce</w>
▁C ard</w>
▁200 6</w>
ugg age</w>
tr i▁
su ff▁
pop ular</w>
pl anni▁ng</w>
op en▁ed</w>
m ir▁ae</w>
l ost</w>
inc▁ re▁ase</w>
fa▁m ily</w>
ev e▁l
el a</w>
ec ti▁ng</w>
d▁ uring</w>
con tract</w>
ass oci
al▁ f</w>
T O</w>
▁viol ated</w>
▁sol ving</w>
▁led ger</w>
▁b ul
▁W ell</w>
▁Jeon nam</w>
▁Dec laration</w>
▁Cor p.</w>
sur v
rev ealed</w>
par t▁y</w>
med i▁
lo ad</w>
he▁ on</w>
h o▁s
ex▁ per
ar ch
&a▁p▁os ;▁s</w>
▁op ponent</w>
▁mat h</w>
▁h ire</w>
▁h asn</w>
▁W e
▁Su per</w>
▁S elf</w>
▁20 ,000</w>
x i</w>
w id
v ise</w>
to▁ ur
oper at▁ed</w>
m▁ .</w>
id arity</w>
f un</w>
e▁ ed</w>
ch e▁ck</w>
al ist</w>
▁u tive</w>
▁sugg est</w>
▁su gar</w>
▁res ▁
▁n av
▁k n▁
▁analy sts</w>
▁S aem
▁H ome</w>
▁Cri tics</w>
▁Bl ack</w>
u▁r ity</w>
tr end</w>
tion ally</w>
fi el
f o
cri ti▁ci
cos ts</w>
b a▁nd</w>
aes ong</w>
P S</w>
M ayor</w>
▁s i▁nce</w>
▁mom entum</w>
▁ma them
▁l iber
▁fl oo
▁ex istence</w>
▁dis coun
▁b e▁g
▁ad visory</w>
▁Int elligence</w>
▁Han a</w>
ul t▁ural</w>
s us▁
p▁er▁ son</w>
or mit
n▁um ber</w>
h igh▁er</w>
b▁l em</w>
b▁ eg
C re
▁th ick</w>
▁spea king</w>
▁remov al</w>
▁n eck</w>
▁m ine</w>
▁coll ective</w>
▁celeb rate</w>
▁S illa</w>
▁Il bo</w>
▁3 9</w>
wh o▁se</w>
t▁ en
spe▁ cial</w>
pr▁o j▁ect</w>
o▁ us
ev en▁t</w>
enez u
em p▁
econ▁ omic</w>
Y ou</w>
P a▁
O S</w>
Jus ti▁ce</w>
▁wit n
▁system atic</w>
▁restruc turing</w>
▁pass es</w>
▁extrem ely</w>
▁circ le</w>
▁ar gue</w>
▁Un ions</w>
▁Tur kish</w>
▁KOS PI</w>
th i▁n
sh ed</w>
s exual</w>
op▁ ment</w>
me▁ di
l▁ ess</w>
in ating</w>
g an</w>
e▁ss ed</w>
e▁nd ly</w>
ett es</w>
cit▁ iz
ch e▁rs</w>
a▁y or</w>
ar row
am i</w>
Indus tri▁al</w>
C oll
▁th a▁n</w>
▁go▁ in▁g</w>
▁epis ode</w>
▁dep ends</w>
▁Sm art</w>
the▁ se</w>
s av
rec ently</w>
rais i▁ng</w>
prof it</w>
os t
om▁ an</w>
ob ▁s</w>
nece▁ss a▁ry</w>
low▁ er</w>
fi▁l m</w>
fi▁ ed</w>
fin al</w>
er▁ at▁ion</w>
dep artment</w>
ai▁ l</w>
T our
S he</w>
Hy und▁ai</w>
F or▁
De▁ fense</w>
D ec▁
Busin e▁ss</w>
▁six th</w>
▁neigh bors</w>
▁instruc tors</w>
▁gr at
▁g ifts</w>
▁design s</w>
▁correspon ding</w>
▁col orful</w>
▁bo oth</w>
▁bal anced</w>
▁acc es
▁a s▁
▁U N</w>
▁T reas
▁Per iod</w>
▁Budd ha</w>
s▁ im
so▁ cial</w>
pr▁o duct</w>
mea sure</w>
m oun
ex p▁er
ell a</w>
cont ent</w>
a▁ b▁
aver a▁ge</w>
al ong</w>
ac▁ ts</w>
201 2</w>
&a▁ po▁s▁
▁valu able</w>
▁sign al</w>
▁r ains</w>
▁pass port</w>
▁m i</w>
▁ir on</w>
▁def icit</w>
▁b oss</w>
tr▁ ib
mod▁ el</w>
m ail</w>
ish i▁ng</w>
if ier</w>
i o▁nal</w>
h▁ ope</w>
facil i▁ty</w>
e▁ sti
coun sel
c anc▁
Un ited</w>
4 1</w>
▁st ake</w>
▁pregn ant</w>
▁m echan
▁gu ys</w>
▁eas ing</w>
▁dis ▁
▁Pri ze</w>
▁Comm unity</w>
▁3 D</w>
u▁n ity</w>
u ous</w>
si▁ ze</w>
sec▁ urity</w>
r▁ is
o▁n g▁
m un
is▁ is</w>
excell e▁nt</w>
et ely</w>
di▁ d</w>
dem and</w>
a▁ mo▁
aw a</w>
Tra▁ de</w>
J un</w>
Dec ree</w>
B aek</w>
5 1</w>
▁minis tries</w>
▁m on▁
▁eng age</w>
▁contain er</w>
▁Fur thermore</w>
or ders</w>
n ic</w>
l▁ ion</w>
in▁ te▁n
g▁ ive</w>
g ames</w>
for c▁
ev e▁r
d ly</w>
c▁ all▁ed</w>
cand i▁d
all i▁ng</w>
acc or▁
Rus sia</w>
J eon</w>
1 0▁
▁vess els</w>
▁t ight</w>
▁succ eed</w>
▁stom ach</w>
▁star tups</w>
▁sol utions</w>
▁fres h
▁fos tering</w>
▁L ove</w>
▁Comm erce</w>
v al</w>
tr▁ ies</w>
t ou▁r
t ech▁n
prac tic
ou s▁es</w>
ne▁ ws</w>
n ucle▁ar</w>
m iddle</w>
id eo</w>
habilit ation</w>
form ing</w>
e▁c t▁ion</w>
evalu ati▁on</w>
ea si▁
c▁ hed</w>
broad ca▁
at▁ a</w>
anc ement</w>
Y oun▁g</w>
M ot
I P</w>
H ▁u
▁sh ock</w>
▁s and
▁prem iums</w>
▁dr inks</w>
▁d ealing</w>
▁con grat
▁con crete</w>
▁c igar
▁ac tress</w>
▁May be</w>
▁Mar ine</w>
▁Gyeong ju</w>
▁Comm and</w>
▁A ft▁er</w>
▁20 0,000</w>
vi r▁
tr aining</w>
s ports</w>
reg i▁on</w>
or i▁g
n etw
i ou▁s</w>
h▁ an</w>
h igh▁
e▁n e</w>
exp e▁ct▁ed</w>
del iver
d ex</w>
S▁e ou▁l</w>
K ing</w>
Je o▁ng</w>
5 0
▁v is▁
▁u ed</w>
▁st y
▁semin ar</w>
▁rel ocation</w>
▁per su
▁o ve▁r</w>
▁h ole</w>
▁cont acted</w>
▁bu yer</w>
▁bo xes</w>
▁R en
▁5 0,000</w>
st re
s o▁ng</w>
negoti atio▁ns</w>
investig▁ atio▁n</w>
e▁ ch</w>
ee th</w>
d ed
c ot
bl▁ ic</w>
S por▁ts</w>
K ong</w>
Develop me▁nt</w>
D on
▁pos ts</w>
▁libr aries</w>
▁i l</w>
▁exc eeds</w>
▁bre aking</w>
▁Y eon</w>
▁U n</w>
▁F C</w>
▁Da ewoo</w>
v▁ er</w>
ut ation</w>
s▁h oul▁d</w>
prin ci
pre v▁
or▁ ity</w>
m uc▁h</w>
m ate</w>
in st▁
exper i▁
d ow▁n</w>
S▁ ec
Ex ▁
Dae▁ gu</w>
. 9
▁un ions</w>
▁treas ury</w>
▁short age</w>
▁leg s</w>
▁competi tions</w>
▁c ru
▁autom obile</w>
▁S us
▁Med ium</w>
▁M oo</w>
▁C SAT</w>
ti▁ cl▁e</w>
s▁ is</w>
r ase</w>
presid e▁ntial</w>
op pi▁ng</w>
loo ki▁ng</w>
le▁ ad▁
le▁ ading</w>
it ter</w>
igh ter</w>
develo▁p ment</w>
d im
b ong</w>
ag a▁inst</w>
Hy▁un dai</w>
F ood</w>
D aej
▁suspen d</w>
▁semiconduc tors</w>
▁r ises</w>
▁in ner</w>
▁don ations</w>
▁ch ronic</w>
▁br anches</w>
▁apolog ize</w>
▁O k
▁Exc use</w>
ym nas
um es</w>
t▁h er▁e</w>
s n
per f
or ial</w>
ok▁ es
n ati▁onal</w>
m i▁d
iz▁ at▁ion</w>
is t▁s</w>
ir able</w>
ic le</w>
i efs</w>
fl ow</w>
f avor
expl▁ aine▁d</w>
em atic</w>
ea▁ l</w>
cri tici
cour se</w>
a▁ w
adv ance</w>
Fin anci▁al</w>
B as
6 3</w>
▁war eh
▁vir tual</w>
▁un avoidable</w>
▁th o▁se</w>
▁rep ayment</w>
▁ob st
▁le▁v el</w>
▁h an
▁fac ilit
▁exchang ed</w>
▁doc um
▁dist inc
▁des per
▁b anned</w>
▁an c
▁Ye osu</w>
▁C are</w>
▁Ar gent
▁4 8</w>
▁2 3
sum mer</w>
sid ers</w>
sh▁ ould</w>
ri e▁d</w>
professi on▁al</w>
pa▁ ss</w>
ld wide</w>
fa▁ ir</w>
fam ilies</w>
ed▁ ly</w>
dec re
c▁ le</w>
contin u▁ed</w>
comm ission
a▁ n▁
ati▁ c</w>
al tern
J on▁g</w>
C▁ omm
B o
A sian</w>
▁with draw</w>
▁transl ation</w>
▁mark ed</w>
▁m ent
▁f at</w>
▁ev acu
▁chea per</w>
v ▁es</w>
s▁ tr▁
su pply</w>
st ream</w>
re form</w>
pos s▁
pe a▁r
p ack
on▁ ic</w>
oc olate</w>
n ▁s</w>
mob i▁le</w>
ma▁r k</w>
ket ball</w>
institu tio▁ns</w>
e▁ al</w>
em ▁ed</w>
a▁ k</w>
ar ts</w>
an tial</w>
am ent</w>
Jap a▁n
8 8</w>
▁ob jection</w>
▁ex traordinary</w>
▁dem anding</w>
▁are n</w>
▁B rexit</w>
sh a▁re</w>
ser▁ vice</w>
rel ations</w>
re du▁ce</w>
prec ed
pos▁ si▁ble</w>
o▁ s</w>
m▁ obile</w>
long ed</w>
k ind</w>
investig▁ ation</w>
igh te
gover▁n m▁ent</w>
fr i▁
f ▁un
contro ver▁sy</w>
comp▁ any</w>
a▁t t
at▁ eg
al ities</w>
Dem▁ocr at▁ic</w>
1 2▁
▁slow ly</w>
▁n ovel</w>
▁mar tial</w>
▁man ual</w>
▁identi fication</w>
▁hand led</w>
▁grow s</w>
▁fin als</w>
▁des k</w>
o on
in▁ come</w>
i ances</w>
h▁ y
h eat</w>
fl edg▁ed</w>
end ant</w>
ea ting</w>
d ur
cri be</w>
cl ock</w>
S c▁
D o▁ng</w>
5 7</w>
▁ten sion</w>
▁pat tern</w>
▁p ace</w>
▁neighbor ing</w>
▁inter views</w>
▁en ds</w>
▁em otions</w>
▁e ▁
▁deleg ation</w>
▁col onial</w>
▁T or
w o▁ok</w>
t▁h rough</w>
t ou
rep▁or te▁d</w>
publ i▁c</w>
prom ise</w>
off▁ ic
o b▁er</w>
k age</w>
f▁ ore</w>
dr am
des i▁gn</w>
b▁ ur
ap art
Def en▁se</w>
▁s ustainable</w>
▁r iding</w>
▁purch ases</w>
▁pl ate</w>
▁op tim
▁di versi
▁c oin
▁T ake</w>
▁&qu o▁t▁;</w>
ti o▁nal</w>
res▁ ea▁r
o ing</w>
g ap</w>
fem a▁le</w>
ex i▁st
e th
com prehen
V i▁ce</w>
Dis trict</w>
CE▁ O</w>
▁dis charge</w>
▁coun ter</w>
▁correc tion</w>
▁Prot ection</w>
▁Bel g
r▁e p▁ort</w>
ou▁ s
h▁ t</w>
hist o▁ry</w>
gr▁ ow
c▁ aus
at ell
O P</w>
M y
M an▁
▁urg ently</w>
▁pro ve</w>
▁ph ilos
▁op tion</w>
▁immigr ants</w>
▁T ea
▁S quare</w>
▁Ass et</w>
w in▁
p▁l ease</w>
pas s▁ed</w>
par a▁
on o▁my</w>
ol ved</w>
m▁ emb▁er</w>
g ave</w>
et es</w>
ess ly</w>
d oll
b ery</w>
a▁ us▁e</w>
augur ation</w>
as▁ on</w>
Sept emb▁er</w>
S y
J anu
I CT</w>
▁th▁ er▁e</w>
▁s y
▁off line</w>
▁mill ions</w>
▁exam ples</w>
▁conn ecting</w>
▁amoun ts</w>
▁Sch ol
▁Rep ubl
▁M anch
▁Jeon buk</w>
▁D av
▁&a▁ pos;
us ive</w>
tr o</w>
su▁ n</w>
sh in</w>
s en▁
offic ▁e</w>
mee▁ ting</w>
m yeong</w>
li▁ st</w>
ific ally</w>
iev ed</w>
d▁ am
coun c▁il</w>
confir m▁ed</w>
comp▁an ies</w>
bo▁r n</w>
Spec i▁al</w>
F o▁od</w>
D irector</w>
. m▁.</w>
▁stat ue</w>
▁j in</w>
▁inf ants</w>
▁flo ors</w>
▁fil es</w>
▁f are</w>
▁en ters</w>
▁cou l▁d</w>
▁W inter</w>
▁T ell</w>
▁Reg ulations</w>
▁Per sons</w>
▁Gre at</w>
w e▁lfare</w>
vis ion</w>
serv ▁ed</w>
s ical</w>
r▁ul ing</w>
p▁ res
ove▁r seas</w>
oll ywood</w>
loc ated</w>
jur is
anc er</w>
Tr ade</w>
N ovember</w>
M ov
L ED</w>
C ultu▁re</w>
▁un clear</w>
▁immedi ate</w>
▁conn ect</w>
▁bur ned</w>
▁M c
wh▁ et▁her</w>
t▁ic l▁e</w>
sy n
su▁r ance</w>
mov ▁ed</w>
k▁ ind</w>
k ets</w>
itt▁ en</w>
g t;</w>
ea c▁h</w>
c a▁rd</w>
K o</w>
8 5</w>
▁t ough</w>
▁mic ro
▁fr ustr
▁dec eased</w>
▁coll ea
▁Sh ould</w>
▁P u
▁P ost</w>
▁B ranch</w>
tru▁ ctu▁re</w>
sus pect▁ed</w>
res tric
re ven
mak ▁er</w>
jo▁ in</w>
em ic</w>
di f▁f
cri t▁ic
b▁u ▁t</w>
b etter</w>
au th▁
▁w oo</w>
▁qu arters</w>
▁m others</w>
▁form al</w>
▁f i▁rst</w>
▁Del iberation</w>
ve h▁
s▁ h▁
n oc
j▁ oo</w>
issu▁ es</w>
implem ent
h all</w>
g row</w>
g as</w>
fri ends</w>
b ill</w>
J ▁un
B ur
5 ▁th</w>
▁was hing</w>
▁serv er</w>
▁loc ations</w>
▁join ing</w>
▁f ewer</w>
▁d um
▁Co ach</w>
▁Cl ub</w>
▁&apos; t</w>
tw ave</w>
tu▁r n</w>
resp o▁n
r id
pro▁ ject</w>
mar ks</w>
m ain▁
introduc ▁ed</w>
import ant</w>
high e▁st</w>
g a▁n
f av▁
establis hed</w>
dis trict</w>
con ven▁
cer emony</w>
ar i▁ng</w>
Min▁ ister</w>
M C</w>
L e▁
Dis▁ trict</w>
B ▁u
; d</w>
▁wel come</w>
▁sp ir
▁rev eal</w>
▁ordin ances</w>
▁gr ound
▁cou ples</w>
▁answ ered</w>
▁Sw eden</w>
▁P acific</w>
▁H ead</w>
▁For tunately</w>
t aking</w>
sub je▁ct</w>
s ex</w>
progr a▁ms</w>
partici▁ pa▁
og▁ n
i king</w>
f ee</w>
div ision</w>
diffic ult</w>
cl e▁ar</w>
M oo</w>
&ap▁os; t</w>
▁w ouldn</w>
▁us eful</w>
▁t end
▁st ro
▁st ops</w>
▁sav ed</w>
▁res istance</w>
▁peti tions</w>
▁busin ess
▁a n▁
▁F ederal</w>
r a▁nt</w>
od a</w>
l t;</w>
i▁s try</w>
ins eng</w>
illing ness</w>
d ang
ag i▁ng</w>
R A</w>
P l▁
Gw▁ angju</w>
Comm▁ it▁tee</w>
C C
▁ped estr
▁mea su
▁m in</w>
▁impres sion</w>
▁cons ol
▁ ti▁on</w>
ye on
w▁it h▁in</w>
w▁ a</w>
v ic▁
t▁er m</w>
tr ai▁n
r at▁
p▁ ing</w>
po▁r ts</w>
ou▁ ght</w>
on▁ ment</w>
je▁c ts</w>
i▁st▁ ry</w>
h a▁r
go▁ vern
g iv▁en</w>
form ati▁on</w>
est ab▁
c▁ ould</w>
chair pers▁on</w>
cap it▁al</w>
,▁ 000</w>
▁stor ed</w>
▁larg ely</w>
▁ag gres
▁G umi</w>
▁2 9
vis iti▁ng</w>
udg et</w>
ta▁ ge</w>
rec e▁nt</w>
lo▁ c
join▁ ed</w>
f ees</w>
f an</w>
e ve</w>
de ed</w>
au▁ lt</w>
a th▁er</w>
M ark
I s</w>
▁y o▁u</w>
▁uni form</w>
▁renew able</w>
▁p ip
▁minim ize</w>
▁hom epage</w>
▁Un ification</w>
▁Str ategy</w>
▁S im
▁Re uters</w>
▁D ream</w>
y m</w>
ut e▁s</w>
tra it</w>
s▁y st▁em</w>
si▁ ons</w>
r at▁e</w>
or i▁ty</w>
m em
c▁ au▁
conditi ons</w>
com▁ pa▁red</w>
a▁ king</w>
at ings</w>
ar ms</w>
and a</w>
ai▁ gn</w>
administr▁ ative</w>
L ot▁te</w>
I D</w>
F ac▁
7 ▁th</w>
▁y ea▁rs</w>
▁sugg ests</w>
▁sub contrac
▁stead y</w>
▁sex ually</w>
▁sc ulp
▁l o▁
▁incre as
▁h orse</w>
▁an ger</w>
ul ati▁on</w>
t m▁ent</w>
sm artph
press way</w>
p ical</w>
p ed
m▁ aking</w>
l i▁n
ea sing</w>
d▁ on</w>
deung po</w>
der▁ ly</w>
c op
a▁r k</w>
T alk</w>
M▁ oon</w>
M et▁
A m▁
▁w ou▁ld</w>
▁num erous</w>
▁n am</w>
▁const ant</w>
▁P ar▁ty</w>
un gri</w>
trad it▁ional</w>
th▁ od</w>
re▁ v
oc▁ k</w>
l a▁ck</w>
increas i▁ng</w>
er e▁d</w>
ea▁ st</w>
d it▁
c ars</w>
ang yo</w>
am ps</w>
ad o</w>
En vir
5 8</w>
▁u ally</w>
▁mis under
▁l angu
▁consult ations</w>
▁attrac tion</w>
▁att empted</w>
▁US D</w>
▁Sec ond</w>
▁S il
▁For um</w>
w e
sl etter</w>
sh o▁rt</w>
s anc▁
s ale</w>
ra ised</w>
prais al</w>
os es</w>
os a</w>
h ous▁
frastruc tu▁re</w>
e▁s ted</w>
e▁n ▁t</w>
el ▁s</w>
de▁ f
d idn</w>
ch ild▁ren</w>
a▁m p;</w>
aw ing</w>
an oth▁er</w>
▁rea ching</w>
▁prim ary</w>
▁im pris
▁F TC</w>
▁Eng ineering</w>
▁D r.</w>
t▁ in▁g</w>
s urr
s er</w>
p▁ ower</w>
play e▁rs</w>
particip ate</w>
p us
oth e▁rs</w>
on to</w>
m as
i▁ e</w>
it coin</w>
is ti▁cs</w>
inc re▁
di▁ ed</w>
com pens
c ▁ut</w>
b▁ el
a▁m ong</w>
am en</w>
Lea g▁ue</w>
En▁g lish</w>
▁vis ible</w>
▁sh eet</w>
▁revital ization</w>
▁pat terns</w>
▁lea ked</w>
▁dang er</w>
▁con gl
▁collabor ation</w>
▁att empt</w>
▁argu ment</w>
▁acc ept
▁T est</w>
▁Se▁ oul</w>
▁Administr ative</w>
▁&▁ a
s▁y s▁tem</w>
pro jec▁t</w>
ow▁ ing</w>
oun der</w>
l▁ arge</w>
in▁ cl
if elong</w>
des ig▁n
a▁n ds</w>
ad a</w>
a .▁m.</w>
N A</w>
H A
D▁ onald</w>
Co▁mm i▁ttee</w>
C r
6 4</w>
▁vir tually</w>
▁thous and</w>
▁res ignation</w>
▁recon struction</w>
▁r ow</w>
▁par ent</w>
▁organ ic</w>
▁l a
▁i Phone</w>
▁Kum ho</w>
um a</w>
tu tion</w>
j oy
itiv ely</w>
he▁ at</w>
ewor thy</w>
est▁ ival</w>
coo p▁er
compl eted</w>
ast al</w>
appl ic▁
ali for
U▁ S</w>
Jap anese</w>
A ▁h
A g▁
▁t astes</w>
▁t ab
▁st ands</w>
▁pr ide</w>
▁perc eption</w>
▁gu ilty</w>
▁b id</w>
▁am o▁ng</w>
u d</w>
t om▁
si▁ d
sch ools</w>
pur po▁se</w>
prosec ▁u
pro perly</w>
of▁f ic
m ach
is ms</w>
improv eme▁nt</w>
gl i▁sh</w>
g a</w>
for eign</w>
ec tors</w>
circ umst
as tically</w>
ac ti▁ng</w>
ab ol
S ept▁
▁s an
▁p ig
▁met al</w>
▁mach ines</w>
▁juven ile</w>
▁f i▁
▁experi encing</w>
▁G M</w>
▁Ch e
▁Arab ia</w>
und ae</w>
tu m</w>
ti▁n ue</w>
ter ies</w>
son nel</w>
shar i▁ng</w>
s pre▁ad</w>
p▁or ts</w>
p▁l eas▁e</w>
ock et</w>
o ffer
ir e▁ct</w>
ge▁t ting</w>
bl i▁c</w>
a▁mo▁ unt</w>
azak h
am in</w>
aftern o▁on</w>
Gyeon▁g gi</w>
B areun
5 6</w>
▁per mit</w>
▁or dering</w>
▁hom etown</w>
▁fl uctu
▁fi re
▁br inging</w>
▁al on▁g</w>
▁Song pa</w>
y▁ er</w>
v ent
tra ff▁ic</w>
th▁ a▁n</w>
sch oo▁ls</w>
ru pt</w>
ph oto</w>
olog ic▁al</w>
lea▁ st</w>
it er</w>
ir▁ec tor</w>
i o▁r</w>
gover▁n men▁t</w>
g g▁
el ig
d a
cor p▁or
ch▁ ange</w>
ag en▁cy</w>
aem ▁un</w>
ac k▁
Prov ide▁d</w>
J os
2 .
&a▁po▁s ;▁s</w>
&ap▁os;▁ re</w>
▁sol o</w>
▁sett le</w>
▁s essions</w>
▁re habilitation</w>
▁net works</w>
▁l uggage</w>
▁decre asing</w>
▁cre ates</w>
▁cal m</w>
▁Ye ouido</w>
▁K ookmin</w>
▁G en
w▁ r
war m</w>
pos t
pos i▁
pon se</w>
o▁ s▁
ou ths</w>
m▁ em▁ber</w>
intr▁ od
g ar
fir m</w>
f oo▁d</w>
e▁ ased</w>
P o▁l
In st▁
C▁ oun
& amp▁;</w>
▁wh▁ ere</w>
▁pursu e</w>
▁prohib ited</w>
▁k m</w>
▁equ al</w>
▁conf ident</w>
▁bur den
▁P rem
y outh</w>
und ang</w>
res s▁ed</w>
po▁p ular</w>
op▁ in
mem▁ bers</w>
m ent▁
l▁ and</w>
il▁l i▁on</w>
hu ge</w>
e▁ f
em bl
di ed</w>
applic ati▁on</w>
N ov▁
▁s ells</w>
▁politici ans</w>
▁pan el</w>
▁g as
▁attrac tive</w>
▁200 5</w>
u▁ ry</w>
sy s▁tem</w>
s e▁s</w>
pro f▁
ist ers</w>
govern men▁t</w>
g rou▁ps</w>
e▁ ff▁
bo a▁rd</w>
ap yeong</w>
ant a</w>
W i▁th</w>
5 9</w>
▁y e▁ars</w>
▁unve iled</w>
▁un t▁il</w>
▁spons ored</w>
▁reg ret</w>
▁equ ality</w>
▁confron tation</w>
▁ch ances</w>
▁T witter</w>
▁Se ocho</w>
▁Co oper
▁Ch osun</w>
▁C N
▁B road
yr ics</w>
w at▁
tre atment</w>
s▁ pe
pl▁ ace</w>
k▁ i</w>
im ▁e</w>
ill er</w>
i a
gr a▁
estab l
com pe▁
ch a▁n
b▁ eh
am ount</w>
accor dan▁ce</w>
L abor</w>
H on▁g</w>
D▁ a
▁str ict</w>
▁ob ject</w>
▁n ▁
▁issu ing</w>
▁deleg ated</w>
▁cre w</w>
▁che ering</w>
▁ch ain</w>
▁any where</w>
▁U. N.</w>
▁Stud ies</w>
▁O p
▁3 0,000</w>
wh▁ y</w>
s▁c ale</w>
res▁ po▁n
reas on</w>
on li▁ne</w>
l eep</w>
i▁t ary</w>
ins egae</w>
h▁el p</w>
h ospital</w>
ex pe▁r
at us</w>
Pen insula</w>
G re
▁ul tural</w>
▁tri ps</w>
▁t ools</w>
▁legisl ative</w>
▁jus tif
▁guarant eed</w>
▁d e</w>
▁chem ical</w>
▁ch at</w>
▁bath room</w>
▁ass istant</w>
▁as k▁ed</w>
▁ar bitr
▁affili ates</w>
▁advis ed</w>
▁Th eater</w>
▁O s
▁M E
wh▁ ether</w>
vill a▁ge</w>
stat▁ us</w>
sc en
s ize</w>
preh e▁n
pl ay▁er</w>
n▁ ext</w>
it ude</w>
gen c▁y</w>
en▁ ess</w>
ea sure</w>
d a▁m
c iti▁
b oy
at o▁r</w>
ar ely</w>
a thing</w>
J u</w>
C▁ om
Amer ic▁an</w>
▁un likely</w>
▁t aught</w>
▁subsid ized</w>
▁sub mission</w>
▁shor tly</w>
▁requ esting</w>
▁per i
▁l od
▁inten se</w>
▁ins isted</w>
▁fr ame</w>
▁firefigh ters</w>
▁cam eras</w>
▁ban king</w>
▁M un
▁Com panies</w>
sec retary</w>
pr os▁
ph o▁to</w>
p ir
otten ham</w>
on▁ t</w>
on line</w>
m▁ar▁ ket</w>
mod el</w>
l▁ o
k es</w>
er a▁l</w>
ear ning</w>
d▁ is▁
d e▁rs</w>
b▁ us
add it▁ional</w>
L og
▁v ot
▁in corpor
▁democr acy</w>
▁b en
▁ar ch
▁Taek wondo</w>
▁M an</w>
su ppo▁r
op p▁os
lim ited</w>
leg isl
j o▁on</w>
el ectr
ea▁ sy</w>
constr u▁c
c ess</w>
busin esses</w>
atten ded</w>
ap▁ er</w>
O C</w>
D S</w>
20 20</w>
▁t om
▁psych ological</w>
▁f eared</w>
▁dismis sal</w>
▁c a▁
▁U ijeongbu</w>
▁E as
vehic l▁es</w>
ultane ously</w>
ul ates</w>
str eng▁
st ar</w>
sa▁ le</w>
s pre
po▁l ice</w>
pe tr
o▁n line</w>
k a</w>
ho▁ l▁d</w>
ea st</w>
d▁ ent</w>
cas ting</w>
car ri▁ed</w>
c ente▁r</w>
Sou t▁h</w>
Ind▁ us
I C</w>
▁mot or</w>
▁f er
▁ex empted</w>
▁com ment</w>
▁a fraid</w>
▁J am
▁C o.</w>
▁20 00</w>
ye▁ ong</w>
ter▁ m</w>
se i</w>
r ain
partic ▁ula▁r</w>
ow▁ n
ma▁ d▁e</w>
ing re
g il</w>
fe▁ es</w>
est a▁te</w>
em en▁ts</w>
e ver
dro p</w>
der ful</w>
at▁ h
app▁ rov
an▁ ding</w>
acc ep
Ph il
Offic ▁e</w>
O c
M ic
I l</w>
A gency</w>
▁se izure</w>
▁ret ail</w>
▁int ellectual</w>
▁hop es</w>
▁a▁ fter</w>
▁Res ources</w>
▁&apo▁s ;t</w>
y an▁g</w>
x y</w>
su me</w>
og an</w>
ocr▁ atic</w>
j oon</w>
i▁ ev
h▁ ome</w>
e▁ te</w>
ec▁ te▁d</w>
contro l</w>
b▁ud get</w>
ack et</w>
S ol
Pro▁v in▁ce</w>
Min i▁st▁ry</w>
▁subst ances</w>
▁mov ements</w>
▁ma xim
▁discharg ed</w>
▁compens ate</w>
▁acc eler
wh▁ ile</w>
t y
t o▁w
pri▁ vate</w>
person n▁el</w>
p ic▁
osp el</w>
lo an</w>
id ation</w>
bel iev
bec▁ ause</w>
ail ing</w>
&a pos▁;
▁tr a
▁strugg le</w>
▁res ource</w>
▁negl igence</w>
▁autom atic</w>
▁Th ▁e</w>
▁C amp
▁Author ity</w>
sh owed</w>
resid▁ ents</w>
partic▁ip▁ ate</w>
o▁ th
onom ous</w>
inv es▁t
fl u
f ol▁l
er▁ n</w>
con struction</w>
con stitu
con fi▁r
comp an▁y</w>
ap artme▁nt</w>
ad i▁ng</w>
W ar</w>
Sec ur
▁pre ference</w>
▁mist akes</w>
▁bid ding</w>
▁W at
▁P res
▁N A
▁L eg
▁D aily</w>
u▁d in▁g</w>
u▁ blic</w>
und e▁r</w>
t▁ ant</w>
tr an▁s
t g
t as
s▁ec on▁d</w>
su ff
st ern</w>
sh a▁r
sched ul▁ed</w>
s ayin▁g</w>
p▁ol▁ icy</w>
pos ure</w>
ourn al</w>
f our▁th</w>
esti ons</w>
corpor a▁te</w>
cl▁ aim
c our▁
a▁r ding</w>
a▁ ds</w>
Sam▁ sung</w>
Metro▁pol i▁tan</w>
J a▁n
▁t igh
▁st u
▁pre d
▁ph armaceutical</w>
▁grand mother</w>
▁fair ness</w>
▁en coun
▁dep end
▁Inspec tion</w>
▁Environ mental</w>
yst e▁m</w>
ye e▁s</w>
ust me▁nt</w>
ur ban</w>
tion ary</w>
rul ing</w>
prosec uti▁on</w>
pr ic▁es</w>
ot▁ h
me al</w>
ic ted</w>
f ers</w>
equ ality</w>
c▁ ri▁
con v
ch a▁n</w>
a uc
St ud
Se▁r vice</w>
O lymp
In ter
H was
Dep artme▁nt</w>
B A</w>
4 00</w>
▁p apers</w>
▁nerv ous</w>
▁inv ent
▁den ied</w>
▁be e▁n</w>
▁att ach</w>
▁N ak
v▁ ir
pro bl▁em</w>
m▁ anag
it o▁rs</w>
gov▁ern ment</w>
en tic
ea s▁
d emocr
ci ation</w>
bet▁w ee▁n</w>
an▁ no▁un
P▁rov ince</w>
Presi▁d ent</w>
H an▁
G im
,0 00
▁wea pon</w>
▁res id
▁reorganiz ation</w>
▁pen ding</w>
▁n ations</w>
▁diagn osed</w>
▁det ention</w>
▁day time</w>
▁I m</w>
▁El ection</w>
▁Com petition</w>
▁4 2</w>
th ings</w>
ol▁ og
iz z
ign ity</w>
i u▁m</w>
hav i▁ng</w>
go▁ ver
fe▁ ll</w>
f elt</w>
emb▁ ers</w>
ecu tive</w>
c ore</w>
bas is</w>
af▁f airs</w>
Y i</w>
Sp▁ec ial</w>
▁tri als</w>
▁th r
▁th i▁nk</w>
▁p ill
▁le g</w>
▁inter ven
▁fl ights</w>
▁f ish
▁dec isions</w>
▁character istic</w>
▁L ater</w>
▁C andid
tre a▁t
ti▁ ci▁
ti f▁
sch ol
s in▁g</w>
s ent▁
p ea▁ce</w>
n eg▁
m▁ i</w>
ff▁ ic
execu ti▁ve</w>
ch airman</w>
D▁ep uty</w>
▁vis a</w>
▁shou lder</w>
▁sea sons</w>
▁s ayi▁ng</w>
▁laun ching</w>
▁langu ages</w>
▁eg gs</w>
▁c o▁uld</w>
▁S an
▁S a
▁N o
▁Gu ard</w>
▁G ye
▁An gel
transport ati▁on</w>
s▁u pport</w>
si▁ g
sh owi▁ng</w>
se▁ veral</w>
s ymp
it▁ ted</w>
g▁row th</w>
fortun ately</w>
facil itie▁s</w>
en ough</w>
J▁ap an</w>
H▁ an
H e▁al
Co▁un cil</w>
▁underst ood</w>
▁un familiar</w>
▁res ume</w>
▁res ulted</w>
▁pos ting</w>
▁pas tor</w>
▁not eworthy</w>
▁l isting</w>
▁inev itably</w>
▁ed ge</w>
▁Hy o</w>
▁Am bassador</w>
urr ing</w>
s▁ ec▁
s ense</w>
ri a</w>
pl ary</w>
od aemun</w>
mater ia▁ls</w>
l▁ ack</w>
lo om
la u▁n
expec t
ee▁ p</w>
d▁ ro
den uclearization</w>
d u</w>
d e▁n
contin ued</w>
con t▁r
c e▁nt</w>
E U</w>
Ch ai▁r
▁pass age</w>
▁en v
▁depar ture</w>
▁communic ations</w>
▁J ob</w>
▁& amp;</w>
w ar▁
v ar
u▁n de▁r</w>
s▁ h</w>
sh are</w>
r▁ ights</w>
r▁ el▁
ri ver</w>
pre lim
plac ▁e</w>
ox ide</w>
l egal</w>
j u▁d
enc i▁es</w>
d▁ ec▁
develo▁p m▁ent</w>
ch▁ an</w>
ch an</w>
ap▁ pl
S u</w>
P▁ r
C O
Am e▁r
8 4</w>
▁ra ises</w>
▁l ighting</w>
▁is▁ sue</w>
▁har der</w>
▁h ub</w>
▁g am
▁f or▁
▁dis pos
▁ac knowl
▁V is
▁V enezu
▁KOS DAQ</w>
r▁e f▁er
os ted</w>
organiz ations</w>
or iz
o ju</w>
in▁ ation</w>
ilat eral</w>
i an▁ce</w>
f▁ ar</w>
exi▁st ing</w>
ex ist</w>
ead y</w>
do▁ esn</w>
br and</w>
beco▁m ▁e</w>
a▁c tive</w>
ac ing</w>
a el</w>
Y o▁
J ud
▁w e▁ll</w>
▁pro longed</w>
▁p et</w>
▁n ights</w>
▁law yers</w>
▁inv esting</w>
▁interpre tation</w>
▁integr ation</w>
▁cons isting</w>
▁bur ied</w>
▁appro pri
▁Th e▁re</w>
▁ at▁ion</w>
win ni▁ng</w>
sh▁ ot</w>
sh o▁w</w>
s ely</w>
ri ble</w>
read ▁y</w>
r u▁l
r is▁
r an▁ge</w>
pres ent</w>
m▁ inis
i▁n ter
i▁g n
irel ess</w>
in ni▁ng</w>
in e▁ss</w>
im u▁m</w>
fail ▁ed</w>
e▁ k</w>
d ney</w>
at▁ ure</w>
Su w▁on</w>
E d▁uc
6 7</w>
▁trav el
▁trad ition</w>
▁sp ots</w>
▁r e▁l
▁p e▁r
▁l on
▁chec k
▁Cre dit</w>
▁5 00,000</w>
▁4 3</w>
t▁ ra▁
t▁ ow
t our</w>
op ening</w>
gi ene</w>
end ations</w>
elec om</w>
Tr ▁ump</w>
M S</w>
L ab▁or</w>
H osp
Gw a▁ng
;▁ m</w>
0 8</w>
▁taxpay er</w>
▁r oles</w>
▁r atings</w>
▁in land</w>
▁fin alized</w>
▁exc ited</w>
▁decl ined</w>
▁clin ical</w>
▁ch air</w>
▁categ ories</w>
▁bir ds</w>
▁G uro</w>
▁B er
▁2 4
w ay▁s</w>
retur n▁ed</w>
p ower
n▁ ov
m ay▁or</w>
k l
i▁ ti▁es</w>
ir o</w>
fri e▁ndly</w>
b▁ et▁ter</w>
b al▁l</w>
as s▁es</w>
ar▁ ly</w>
S cien▁ce</w>
M a▁y</w>
▁for g
▁dispat ch</w>
▁bec ▁
▁b oom</w>
▁Represent atives</w>
▁Par ticipants</w>
▁P residential</w>
▁M yeong</w>
tax i</w>
st an▁d
oph is
ok en</w>
o T</w>
l▁ ead</w>
j e
insur an▁ce</w>
e▁conom ic</w>
er ge</w>
communic ati▁on</w>
au g▁h
M an</w>
B▁ usan</w>
A▁h n</w>
5 4</w>
▁wor ship</w>
▁under way</w>
▁re wards</w>
▁ob jects</w>
▁finis hing</w>
▁T w
▁Con cer
w or▁th</w>
s▁h ou▁ld</w>
st ay</w>
r▁ athe▁r</w>
res sive</w>
lo▁ cal</w>
ke▁ ep</w>
ic ity</w>
grow i▁ng</w>
g ate</w>
f▁ fer
con di▁
cau g▁ht</w>
R yu</w>
Prov▁ inc▁e</w>
L ove</w>
K wang</w>
J▁ e
J anuary</w>
H wang</w>
▁wors ening</w>
▁techn iques</w>
▁prot ected</w>
▁proc esses</w>
▁n arrow
▁mid st</w>
▁decor ated</w>
▁d awn</w>
▁bo oths</w>
▁Confuc ian</w>
tr e▁
l▁ik▁ ely</w>
es t▁s</w>
duc ▁ed</w>
di plom
d ai▁ly</w>
R u▁s
J a▁pan</w>
En forceme▁nt</w>
Elec tr▁
▁tel ephone</w>
▁ship building</w>
▁schol ars</w>
▁per ▁
▁m eets</w>
▁gen re</w>
▁aspec ts</w>
▁T ower</w>
▁3 00,000</w>
y▁ eong</w>
ve▁ h
t a▁r
s▁ ame</w>
stu▁d ents</w>
sk in</w>
ro b
o▁m ic</w>
oun g
on ics</w>
j un▁g</w>
it ory</w>
h a▁nd</w>
g roups</w>
fl ix</w>
commission ▁ed</w>
al ties</w>
ai▁n st</w>
acc ou▁n
ab▁ il▁ity</w>
Y eon</w>
W o▁r
M▁in▁ istry</w>
C ar
▁wh oles
▁t eeth</w>
▁s▁ ince</w>
▁com ponents</w>
▁Gw anak</w>
▁B each</w>
▁A f
work er▁s</w>
v▁ iew</w>
s▁ el▁
sus pic
probl e▁ms</w>
pre fer
pers▁ on
op p
og n▁
mis sions</w>
l ow
h ar▁
expen s▁es</w>
c▁ or
b▁ usiness</w>
a▁c tion</w>
an tic</w>
U V</w>
In c▁heon</w>
8 6</w>
▁telecomm unication</w>
▁m alls</w>
▁h ea▁d</w>
▁depos its</w>
▁Chung buk</w>
▁B o</w>
▁4 4</w>
t▁im ▁e</w>
ti▁ ms</w>
st ab
sh r
p▁ ri▁
n ot
me▁ ss
establish me▁nt</w>
ec tion
com peti▁
ch ul</w>
bus i▁n
as ▁h
ac t▁or</w>
E ast</w>
▁surv ival</w>
▁sup porters</w>
▁sear ching</w>
▁refug ee</w>
▁rad io</w>
▁pit cher</w>
▁c iting</w>
▁c ast</w>
▁Pl an</w>
▁Indones ian</w>
▁B ang
vi ation</w>
u▁ sing</w>
s▁ w
stud e▁nt</w>
po▁ or</w>
op ing</w>
l▁ ong</w>
li ance</w>
in▁ clud
e▁st ate</w>
egr ated</w>
d augh
c entr▁al</w>
bl ock
ap o▁s▁
I ST</w>
Gover▁n ment</w>
D A</w>
0 7</w>
. &apos;</w>
▁w illingness</w>
▁u te</w>
▁u es</w>
▁ther apy</w>
▁t ens</w>
▁mus cles</w>
▁l ending</w>
▁increas ingly</w>
▁L ord</w>
▁Jud ge</w>
▁J ongno</w>
▁F ive</w>
▁Bi o
▁An yang</w>
y▁ st
vers▁ y</w>
u▁ p
t▁h e▁re</w>
su▁l a</w>
sup por▁t</w>
sk ills</w>
res▁ earch</w>
r u▁n</w>
pre p▁ar
pos▁ al</w>
p en▁
on als</w>
indus▁ trial</w>
h▁ n</w>
cl ean
ap pl▁
act▁ ively</w>
S oci▁al</w>
P C</w>
▁war ned</w>
▁targ eting</w>
▁supervis or</w>
▁sec onds</w>
▁sal t</w>
▁respon ses</w>
▁r o▁
▁produc tivity</w>
▁pat rol</w>
▁occ u
▁o ri
▁m ask</w>
▁ill ness</w>
▁fl avor</w>
▁driv en</w>
▁c art
▁R ail
▁Offic er</w>
▁4 1</w>
s▁h ow</w>
partici▁pa▁ ted</w>
ov ▁e</w>
lawmak ▁er</w>
i▁ ted</w>
i▁ red</w>
int ell
fam o▁us</w>
ec os
d▁ ir▁ect▁or</w>
d eep</w>
d ated</w>
bu▁ k</w>
ativ ity</w>
af▁ ety</w>
S▁ chool</w>
Ch a</w>
20▁1 6</w>
&apo▁s ;t</w>
▁tr uly</w>
▁instruc tor</w>
▁in fr
▁di esel</w>
▁clos ure</w>
▁att orney</w>
w▁ an▁t</w>
und ry</w>
pen ses</w>
mak ers</w>
inn ov▁
em▁ en▁t</w>
b ac▁k</w>
app ly</w>
Y ou
In stitu
E C</w>
B a▁
8 ▁th</w>
7 7</w>
6 2</w>
0 1</w>
▁wat ers</w>
▁t esting</w>
▁s par
▁pres erve</w>
▁poll ut
▁minis ters</w>
▁b acter
▁T ri
▁Par tic
▁M il
▁K imchi</w>
▁Bu reau</w>
u▁ r</w>
tr u▁c
tr e▁ss</w>
ti st</w>
sec ur
s oo▁n</w>
re▁su▁l ts</w>
regar di▁ng</w>
l eg▁al</w>
ign s</w>
hy up</w>
gr a▁de</w>
contin ue</w>
ch e▁d</w>
b▁u m</w>
bus y</w>
a▁l ways</w>
aud▁ it</w>
af t▁e▁r</w>
adminis ▁tr
S D</w>
S CO</w>
N▁ am</w>
J ang
G o</w>
2▁ 00
▁t ool</w>
▁r ot
▁r e▁s
▁med iation</w>
▁grat eful</w>
▁discus sing</w>
▁Tr ad
▁Rev olution</w>
y▁ et</w>
t▁h y</w>
ti o▁n
r▁ etary</w>
r▁ ais
prev e▁n
ou l
law m▁ak
iz er</w>
h al
ex pre▁ss
emor ial</w>
conven ien▁ce</w>
comm is
ar ▁s</w>
a o
R e▁s
M r.</w>
Dec ember</w>
1 .▁
▁tal ents</w>
▁st ret
▁sh ouldn</w>
▁rel atives</w>
▁ow nership</w>
▁out lets</w>
▁log ic</w>
▁immigr ation</w>
▁ag ents</w>
▁Cap ital</w>
y angju</w>
v ily</w>
re a▁l</w>
peach ment</w>
on▁ gs</w>
iv in▁g</w>
it ain</w>
ic a▁te</w>
hous es</w>
g ung</w>
f▁ ourth</w>
en c▁es</w>
b u▁r
al ition</w>
Pro m▁
F l
F ebru
Ar▁ ti▁cle</w>
&a p▁o▁s
▁t ied</w>
▁super vise</w>
▁st ream</w>
▁resc ued</w>
▁produc ers</w>
▁dis tribute</w>
▁ch e▁ck</w>
y m▁ent</w>
s ult
produc ▁ed</w>
ool ▁s</w>
nu▁m b▁er</w>
m▁ ember</w>
i▁sh ed</w>
indus tr▁y</w>
ic ked</w>
h eon</w>
g am▁e</w>
f▁ir s▁t</w>
ff ers</w>
e▁ ver</w>
ea uty</w>
do g</w>
d .</w>
con secu
b or▁
ar▁ ing</w>
an ity</w>
amm ar</w>
al▁ leg
L ib▁er
J▁ in</w>
E ui</w>
D i
▁str aw
▁restric tion</w>
▁l ev
▁l abor
▁jum ped</w>
▁injur ies</w>
▁hea ded</w>
▁h al
▁ex ists</w>
▁deter ior
▁arriv al</w>
▁advant ages</w>
▁H appy</w>
w▁ er</w>
spec if▁ic</w>
shar ehol
s k</w>
res ta▁
ref e▁r
play ers</w>
mit t▁ed</w>
m enti
i▁ ew</w>
ig g
hy th
hw amun</w>
equ ▁
compl et▁ed</w>
b in</w>
aul o</w>
ar ly</w>
an ting</w>
ad ong</w>
ac he</w>
Rep resent
N ews</w>
Metropo▁l ita▁n</w>
D on▁g</w>
Af▁f airs</w>
8 9</w>
7 2</w>
6 8</w>
# 9
▁sw ing</w>
▁sup er</w>
▁sl ump</w>
▁sc at
▁re fin
▁expres sing</w>
▁direc tions</w>
▁ath l
▁ab or
▁U pon</w>
▁P ay</w>
▁Ex pressway</w>
▁Conf ederation</w>
sec ti▁on</w>
p i▁
p a▁re</w>
m ur
il▁ ar</w>
h arm
es th
d ea
d anc▁e</w>
an▁ c
C en▁ter</w>
▁we b</w>
▁spea ker</w>
▁ro ot</w>
▁repres ent</w>
▁rea ction</w>
▁manip ulation</w>
▁Stand ards</w>
▁M O
▁Jin ping</w>
▁Cong ress</w>
v▁ i
th ese</w>
r▁ o</w>
res earch</w>
oc▁ ks</w>
n or▁
m▁ ove</w>
mos ▁t</w>
lear ni▁ng</w>
l e▁c
h▁ ot</w>
h e▁re</w>
empl▁ oy
ell ed</w>
develop ed</w>
c▁om p▁
commer ci
chi▁ld ren</w>
a▁ir ma▁n</w>
activ ely</w>
Techn olo▁gy</w>
6 6</w>
10 ▁th</w>
&a▁p▁os ;m</w>
▁struc tural</w>
▁scienti fic</w>
▁rea pp
▁h itting</w>
▁O ver</w>
▁J u
▁A wards</w>
wr ong</w>
v ulner
tur ned</w>
t elecomm
streng th▁en</w>
sh ot</w>
s uc▁
re ality</w>
ra▁ in</w>
o▁ cr
n is</w>
m u</w>
it t▁ed</w>
in stitu▁
e▁c ts</w>
e▁ ase</w>
el i▁ng</w>
e iling</w>
dep art▁
c▁om ing</w>
cus t▁om
con c▁
co al</w>
b i▁ll</w>
Pol i▁ce</w>
F estival</w>
E ur▁
Ch i▁ef</w>
▁t ells</w>
▁out look</w>
▁guar dian</w>
▁fri endship</w>
▁ess ay</w>
▁clou ds</w>
▁ch ocolate</w>
▁Sh ip
▁Rev iew</w>
▁Fr amework</w>
▁Cheong do</w>
z o</w>
w ar▁d</w>
us ers</w>
ti▁ onal</w>
st▁ ory</w>
rup ti▁on</w>
re vi▁
o▁r der</w>
loom berg</w>
i an
fu▁ nd</w>
f ee▁l</w>
ess e▁s</w>
es tic
e ffic
dro me</w>
buil t</w>
Infras tru▁ctu▁re</w>
Gov▁ern or</w>
Comm issi▁on</w>
6 1</w>
▁wh▁ en</w>
▁super ior</w>
▁sn acks</w>
▁sh ift</w>
▁p ack</w>
▁oth e▁r</w>
▁k id
▁gradu ated</w>
▁bel ongs</w>
▁be t▁w
▁appl iances</w>
▁a fte▁r</w>
▁Ch ae</w>
veh ic▁le</w>
u t▁e</w>
re pea
pr▁of▁ essor</w>
pr▁o duc
pl▁ ay
pay ment</w>
m ye▁on</w>
hist or
h er▁
e▁c tive</w>
enti onal</w>
cre at▁ed</w>
c ateg
bro a▁d
bri ef
at ar</w>
ar riv
St ation</w>
J un
▁w ild
▁uni forms</w>
▁invest or</w>
▁dis tur
▁claim ing</w>
▁Sh insegae</w>
▁E ui</w>
wor l▁d</w>
u▁ ce</w>
us ▁es</w>
st o▁ck</w>
sch oo▁l</w>
ru it</w>
res u▁lt</w>
represent▁ ative</w>
rece i▁
o▁r ry</w>
o▁r ed</w>
opin io▁ns</w>
i▁ f
inves▁ tment</w>
g rou▁p</w>
fi▁r s▁t</w>
f al
ep▁ t</w>
chang ▁ed</w>
b i▁g
E a▁st</w>
Ch inese</w>
▁tax ation</w>
▁recover ed</w>
▁r igh▁t</w>
▁influ enced</w>
▁im position</w>
▁h el▁d</w>
▁en able</w>
▁bel t</w>
▁b ill
▁b ank
▁U.S.- North</w>
▁Partic ularly</w>
▁ME RS</w>
▁Han jin</w>
▁Ex hibition</w>
sh▁ op</w>
reg istr
pl ans</w>
ob ong</w>
expl ain▁ed</w>
ess o▁r</w>
constr u▁ction</w>
c ultural</w>
b en▁
Y ou▁ng</w>
W ith</w>
Nov emb▁er</w>
M etropolitan</w>
F air</w>
E con
Comm itte▁e</w>
▁u c▁
▁succ ession</w>
▁res ort</w>
▁person ally</w>
▁p re▁
▁mo tiv
▁camp ing</w>
▁b ad
▁Y e</w>
▁U U</w>
▁2 50</w>
▁2 .5</w>
w anese</w>
s▁ pe▁
sub scri
rec o▁
pr▁ is
poin▁ ts</w>
our▁ s</w>
m u▁s
in▁ cre
ic ian</w>
g▁ ram</w>
employ ed</w>
d▁u ced</w>
b▁ ec▁
S ea</w>
S ang
N▁ o.</w>
D▁ o</w>
A▁ l
8 7</w>
▁toil et</w>
▁symb ol</w>
▁pl edge</w>
▁p ine</w>
▁k ind
▁im pl
▁heal ing</w>
▁g lob
▁d il
▁air line</w>
▁O ut
▁L ibrary</w>
▁H ollywood</w>
▁D et
y ang
wa it</w>
w o▁uld</w>
w ook</w>
v▁is ory</w>
t▁ ro
t less</w>
sta▁n ding</w>
se▁ t</w>
priv ileg
h▁ ere
e▁ ach</w>
ev ision</w>
es▁s or</w>
enc ement</w>
d rug</w>
ch ▁ul</w>
al y▁
a .m.</w>
Th ey</w>
EP CO</w>
6 ▁th</w>
5▁ 0</w>
1 00
▁s id
▁recru iting</w>
▁promp tly</w>
▁prin t</w>
▁pre ferred</w>
▁in sp
▁in appropriate</w>
▁fl ood</w>
▁fi x</w>
▁att acks</w>
▁ag es</w>
▁V al
z e▁d</w>
v ation</w>
u▁s try</w>
s ory</w>
requ e▁st</w>
pro▁ bl
pre m
langu a▁ge</w>
iv▁ id
im age</w>
il▁l egal</w>
h ous▁es</w>
form ance</w>
e▁n t▁s</w>
em▁ ony</w>
draw ing</w>
def en▁se</w>
ch eong</w>
b▁ec ame</w>
b ok
ak er</w>
Bus a▁n</w>
Aug u▁st</w>
▁system atically</w>
▁sur prise</w>
▁rec all</w>
▁h e
▁explos ion</w>
▁cos t
▁chec ks</w>
▁H yung</w>
▁Des ign</w>
w ea▁
v oc
thr▁ oug▁h</w>
t age</w>
s▁ eok</w>
su ally</w>
respon▁ se</w>
reg ul▁
pr ic▁ed</w>
oc▁ i
o j
in i</w>
g ye</w>
f oc▁
e▁c ti▁on</w>
eb ack</w>
d▁ in▁g</w>
d re
c and▁id
a▁ im</w>
ac ent</w>
ab ies</w>
K O
A E</w>
▁r ank</w>
▁op tions</w>
▁manufactur er</w>
▁hear ts</w>
▁exc ep
▁d ormit
▁ch art</w>
▁be in▁g</w>
▁Se ou▁l</w>
wit h▁
web site</w>
special iz▁ed</w>
r▁ ow</w>
re view</w>
pres sion</w>
ph o▁ne</w>
per▁ son</w>
o▁ .</w>
negoti ations</w>
m▁ p
is▁ su
inter▁ es▁ted</w>
id ers</w>
deter min▁
ci ousness</w>
c end
aw a▁y</w>
ai▁ led</w>
Su won</w>
N ow
Min▁is▁ ter</w>
J▁ i</w>
Japa▁n ese</w>
El ectron
Devel o▁pment</w>
1▁ 1</w>
&▁ap▁os ;t</w>
▁week ly</w>
▁sign ature</w>
▁out break</w>
▁m yst
▁dis trib
▁ch arm</w>
▁S ung
▁K inderg
▁Gim hae</w>
▁B ol
▁B io</w>
▁Afr ican</w>
▁ ice</w>
w oman</w>
un ive▁r
sub m▁
stud y</w>
poin t▁ed</w>
o▁ d
on ze</w>
mo▁n th</w>
lo▁ w</w>
k uk</w>
f▁ are</w>
c▁ as
comp▁an i▁es</w>
bur d▁en</w>
b i</w>
appro pri
Hy u▁n</w>
E ven</w>
E stablis
Coun ci▁l</w>
▁won derful</w>
▁w ood</w>
▁vis ual</w>
▁sew age</w>
▁s ought</w>
▁represent ing</w>
▁prof itability</w>
▁des irable</w>
▁ar ms</w>
▁W all</w>
y▁ ear▁s</w>
w▁h a</w>
w▁ ays</w>
ul ▁es</w>
t▁ ain</w>
tour i▁sm</w>
sta▁ ff</w>
s i▁nce</w>
rel▁ ea▁sed</w>
organiz ation</w>
om▁ e
ol ds</w>
l iter
l ack</w>
fort ably</w>
duc ted</w>
de▁ al</w>
custom ers</w>
c as▁
ar d▁s</w>
an other</w>
P eople</w>
N o</w>
M E</w>
Intern et</w>
C▁ ent▁er</w>
9 5</w>
▁writ ers</w>
▁p izza</w>
▁l ap
▁hea ted</w>
▁des ired</w>
▁class room</w>
wr itt▁en</w>
u▁n ique</w>
tr ou
s qu
s eon</w>
r▁es ▁ult</w>
p u▁sh</w>
ir▁ d</w>
fac tory</w>
en▁t ary</w>
den t▁s</w>
c▁h arge</w>
comm un▁
b▁ etter</w>
burs ement</w>
beg an</w>
b a▁s
Se▁ ou▁l</w>
K R▁W</w>
▁vir us</w>
▁tr an
▁t all</w>
▁real istic</w>
▁lif ted</w>
▁in noc
▁W ol
▁T our</w>
▁D MZ</w>
▁Br itain</w>
z er
ti ll</w>
stu▁ dy</w>
p▁l ay</w>
n▁ ational</w>
imb ap</w>
h a▁ll</w>
e uk
d an</w>
con d▁
ch ann
b ook
a▁ ld</w>
adem ic</w>
a it</w>
S afety</w>
Pr ot
Econom ▁ic</w>
B ae</w>
Administr ati▁ve</w>
A ffairs</w>
▁retur ns</w>
▁public ity</w>
▁po is
▁mathem atics</w>
▁fro zen</w>
▁fl at</w>
▁exam s</w>
▁absol ute</w>
▁T ottenham</w>
▁St ock</w>
▁Prosec utor</w>
v a▁l
ta▁ ek</w>
si bl▁e</w>
sec t▁or</w>
r▁ am</w>
ru king</w>
pur pose</w>
pl a▁y</w>
in j
im p▁rov
en ly</w>
eg▁ u</w>
ec▁ k</w>
cont e▁nt</w>
c au▁
auth or▁
P▁ar t▁y</w>
Jap a▁n</w>
F ebruary</w>
Co▁mm ittee</w>
▁t ower</w>
▁princi ples</w>
▁hea twave</w>
▁har mon
▁dr one</w>
▁contro lled</w>
▁T h▁
▁Med ia</w>
▁Law maker</w>
▁&▁ a▁mp;</w>
y▁ ong</w>
so▁m e
r▁ ing</w>
r▁ ev▁
m▁ ajor</w>
lo o▁k</w>
i▁ er</w>
inc re▁as
in str
ig▁n ed</w>
ig ation</w>
g▁ ame</w>
f▁ emale</w>
foll ow▁ed</w>
disab l▁ed</w>
d l▁e</w>
conditi o▁ns</w>
b en
ass ing</w>
ac▁ y</w>
ab road</w>
S en
9 ▁th</w>
20 ▁th</w>
▁w o▁n</w>
▁spec ulation</w>
▁rec ▁
▁inv ite</w>
▁hy un</w>
▁fr ag
▁disapp ear</w>
▁del inqu
▁bl ow</w>
▁am azing</w>
▁abol ition</w>
▁S t▁
▁D omestic</w>
▁5 0
▁4 6</w>
throu▁ g▁h</w>
perfor▁m ance</w>
own e▁rs</w>
or ds</w>
k ly</w>
iti s</w>
in▁ c
id en▁ce</w>
ho▁ od</w>
hous ing</w>
em an</w>
conc er▁
ati n</w>
as si▁
Lib▁er ty</w>
D▁ ay</w>
A R
7 8</w>
&ap▁os;▁ ve</w>
▁str ic
▁relation ships</w>
▁refun ded</w>
▁r ank
▁pun ished</w>
▁h urry</w>
▁M el
▁J ames</w>
▁Em bassy</w>
▁Egyp t</w>
wit▁h out</w>
un▁ it</w>
th e▁n</w>
st ation</w>
scre en</w>
s ud
ro a▁d</w>
rank ▁ed</w>
pol itan</w>
ivers a▁ry</w>
h os▁p
gre ement</w>
for ward</w>
f oun
f estival</w>
br a▁nd</w>
b a</w>
ati tude</w>
arant ine</w>
ann ive▁r
Pr▁ o
M O
Intern▁ et</w>
C l▁
▁wid th</w>
▁step ped</w>
▁star tup</w>
▁f ired</w>
▁dis mant
▁comm encement</w>
▁Pri or</w>
▁Pre vention</w>
▁Per haps</w>
▁Lea der</w>
▁K BS</w>
▁In deed</w>
▁D oo</w>
▁7 5</w>
▁2 2
y me▁nt</w>
ul ty</w>
t op
stud▁ ents</w>
st ock</w>
ri ous</w>
reas onable</w>
per ity</w>
ol▁ ved</w>
ob al</w>
m il▁lion</w>
in▁ s
im ent</w>
hea▁ ds</w>
emb le</w>
du▁c ts</w>
det er▁
co▁mp an▁y</w>
a▁ w</w>
as t▁ic</w>
T a▁
J ▁ung</w>
Dec emb▁er</w>
C▁ en▁ter</w>
201▁ 8</w>
18 ▁th</w>
▁th e▁r▁e</w>
▁su m</w>
▁pr ayer</w>
▁lec tur
▁in auguration</w>
▁def eat</w>
▁compl eting</w>
▁challeng es</w>
▁Pl aza</w>
▁O pen</w>
▁H eo</w>
▁E un
▁Ac coun
ye ol</w>
ul n
tr a▁ck</w>
s▁u res</w>
sup porti▁ng</w>
prescri b▁ed</w>
pe▁r c▁ent</w>
o▁ ms</w>
min ed</w>
jo▁ b</w>
gr▁ owing</w>
fu▁ ture</w>
est yle</w>
es ti▁ng</w>
es h</w>
en joy</w>
emer▁ gency</w>
co ope▁r
c au▁se</w>
a▁ ft▁er</w>
ain s▁t</w>
Janu a▁ry</w>
J ongno</w>
▁sil ver</w>
▁prin ting</w>
▁pow der</w>
▁p e▁
▁p a▁r
▁inquir y</w>
▁gu ards</w>
▁encour aging</w>
▁emb arr
▁effec tiveness</w>
▁bott le</w>
▁a f▁ter</w>
▁Techn o</w>
▁M yeong
▁H am
▁H ae
▁Enter tainment</w>
▁C E
▁Ben to</w>
us er</w>
un it</w>
sever ▁al</w>
s essi▁on</w>
res▁po▁n se</w>
pan cy</w>
ot▁ h</w>
ne e▁ds</w>
in e▁s</w>
hom ▁e</w>
g am▁es</w>
ev ents</w>
eff ects</w>
ec t▁s</w>
e z</w>
d est</w>
c▁om p
c ause</w>
bus in▁
b ut
a▁t e▁d</w>
a▁m es</w>
at ever</w>
app o▁
anmunj om</w>
am▁ a</w>
ab inet</w>
Th e▁re</w>
M ex
L aw</w>
▁th i▁s</w>
▁pour ed</w>
▁m ix
▁lic en
▁k i</w>
▁foot age</w>
▁every where</w>
▁dem ol
▁def ects</w>
▁de ployed</w>
▁correc tive</w>
▁compl ained</w>
▁Wh ether</w>
▁Con sumer</w>
▁B uk
▁B al
▁8 00</w>
ung er</w>
rel at▁
re fo▁rm</w>
r ange</w>
ous es</w>
oper a▁te</w>
n e▁r</w>
m▁ ar
me▁ t</w>
l ation</w>
i▁n s</w>
i▁ ke</w>
iv▁ il</w>
f oot
f a▁ll</w>
ec t▁ion</w>
du▁c t▁ion</w>
doc ▁u
b out</w>
Oct ob▁er</w>
Indus ▁
I FA</w>
C s</w>
Ar ts</w>
Administr ati▁on</w>
▁pi ano</w>
▁f em
▁f at
▁concentr ate</w>
▁con clude</w>
▁S ar
▁Chun cheon</w>
▁Austral ian</w>
▁7 00</w>
v▁ ol
un iver
ul▁ y</w>
si t▁es</w>
pro c▁
per or</w>
on sei</w>
m▁ark ▁et</w>
manag▁ em▁ent</w>
m al</w>
it▁ ute</w>
igh t▁s</w>
g e▁d</w>
g al</w>
e▁l t</w>
es pec
en in▁g</w>
ear c▁h</w>
develop▁ ment</w>
cos ▁ts</w>
contro versy</w>
all yu</w>
ad i▁um</w>
W o▁men</w>
Res▁ earch</w>
▁sup plement</w>
▁sp ot
▁sem i</w>
▁pic ked</w>
▁n eve▁r</w>
▁mot or
▁j unior</w>
▁high way</w>
▁encour aged</w>
▁cover age</w>
▁b orrow</w>
▁appl ies</w>
▁additi onally</w>
▁Treas ury</w>
▁S an</w>
▁B udget</w>
y gen</w>
w▁or ld</w>
s▁u ▁
s▁ ur▁
sem iconduc
re vi▁ew</w>
prof ess▁
pres sed</w>
l▁ iving</w>
institu tions</w>
fin ite</w>
es it
be▁ li
M▁ in</w>
En gli▁sh</w>
Associ atio▁n</w>
9 8</w>
▁th rew</w>
▁surv ive</w>
▁open s</w>
▁o cean</w>
▁consult ative</w>
▁child hood</w>
▁cap tured</w>
▁Tr aining</w>
▁Sun cheon</w>
▁R eal
▁Investig ation</w>
▁Ear th</w>
u▁l ar</w>
un iversi▁ty</w>
uc ky</w>
stu▁d en▁ts</w>
st one</w>
qu ickly</w>
pro▁ f
omer ates</w>
n um▁
j oo▁n</w>
i▁ c▁h</w>
h ands</w>
exhib iti▁on</w>
exec u▁
esti m
ed er
d am</w>
alifor nia</w>
P O</w>
N at▁
Minis ter</w>
F ▁u
▁t ox
▁t elling</w>
▁t a▁
▁spl it</w>
▁sim ultaneously</w>
▁sav ing</w>
▁r u
▁h obby</w>
▁experim ent</w>
▁democr atic</w>
▁c ope</w>
▁b ound
▁architec ture</w>
▁a uction</w>
▁D oc
▁All ow
vol u▁n
ta▁ x</w>
s ession</w>
pro▁ gr
our ney</w>
oin▁ t</w>
m eter</w>
m al
i▁s t▁er</w>
hy ▁e</w>
hel▁ p</w>
ef▁f o▁rts</w>
ed u▁c
ec tly</w>
distribu ti▁on</w>
ch n
ad ding</w>
ac count</w>
T BC</w>
Rus s▁ia</w>
P re▁
Gw an▁
F u▁nd</w>
D s</w>
A▁r t</w>
▁w er▁e</w>
▁viol ent</w>
▁un stable</w>
▁part ners</w>
▁observ ation</w>
▁mach inery</w>
▁k ill</w>
▁b e▁c
▁H ope</w>
▁Bur ning</w>
▁Ac tually</w>
retur n</w>
pres▁ cribe</w>
ph y</w>
ph ere</w>
p t▁ion</w>
p a▁y</w>
o▁ il</w>
oun▁ ds</w>
n ever</w>
inte▁r vie▁w</w>
form▁ ed</w>
e▁ar ly</w>
es ity</w>
disc u▁ss</w>
dis mis
cu▁ sed</w>
cust o▁m
c ue</w>
bi▁ g</w>
azakh stan</w>
att ack</w>
ac ed</w>
V ol
V i▁
Sing ap
Pres▁ ide▁nt</w>
Ko▁r e▁a</w>
G rou▁p</w>
1▁ 5</w>
▁wh er▁e</w>
▁w ash</w>
▁resear cher</w>
▁objec tive</w>
▁hea vily</w>
▁c ats</w>
▁autonom y</w>
▁S k
▁P rivate</w>
▁Nex en</w>
▁For tress</w>
wh il▁e</w>
spe▁ ci
so▁ ci
rec o▁rd</w>
r ati
prom ote</w>
over ty</w>
or▁ k</w>
or tly</w>
or di▁n
op ened</w>
l im</w>
in stit▁
ib e▁r
he▁ rein
g▁ re
ex▁ pl
erm al</w>
co a▁ch</w>
c o▁l
c ities</w>
bas ic</w>
an▁ gu
ann u▁al</w>
al bum</w>
ail ▁ed</w>
adem▁ ic</w>
a head</w>
Isl and</w>
G▁ ye
B TS</w>
6 9</w>
▁wor n</w>
▁un ified</w>
▁see kers</w>
▁p ure</w>
▁o p▁
▁manufactur ed</w>
▁i de
▁hot els</w>
▁fl ying</w>
▁fail ing</w>
▁f a▁
▁d ess
wr itten</w>
un gh
ti▁ t
s▁ t▁
s▁ ent</w>
soci e▁ty</w>
pen s▁
p y▁o</w>
op▁ ening</w>
man▁ ag
m ist
in▁ st▁
i on▁
c enter▁ed</w>
ativ e▁ly</w>
at en</w>
▁up date</w>
▁sl owing</w>
▁recycl ing</w>
▁r ough</w>
▁r oo
▁prot ecting</w>
▁pat ri
▁mis sile</w>
▁measu rement</w>
▁concer ts</w>
▁c r▁
▁a ired</w>
▁A round</w>
us hing</w>
ur▁ r
te▁ er</w>
s▁ ea
sur g
stat us</w>
s iv▁e</w>
i▁r l</w>
ind u▁stry</w>
impo▁r tant</w>
i bl▁e</w>
gr▁ ow</w>
f▁ ood</w>
exp o▁rt</w>
d▁u ▁
co▁mp▁ any</w>
a▁ ud
acc ide▁nt</w>
O E
▁w ishes</w>
▁trav eled</w>
▁tr ag
▁t onight</w>
▁reb ound</w>
▁r itual</w>
▁pro p
▁eas tern</w>
▁di ab
▁coun sel</w>
▁b e▁en</w>
▁Tai wanese</w>
▁S ea
▁Gwang jin</w>
▁Gun san</w>
▁G ov.</w>
▁F ed</w>
▁Eas tern</w>
▁B loomberg</w>
w▁ n</w>
u▁r al</w>
u▁ tif
ten sion</w>
sol ve</w>
re▁ t
out side</w>
ok cho</w>
nor the▁rn</w>
lo o▁
keep er</w>
jo▁ o</w>
ital ized</w>
infl ▁u
il▁ i
gre▁ en</w>
f▁am ous</w>
expen ses</w>
emplo▁ yment</w>
e try</w>
e ers</w>
denuclear izati▁on</w>
c▁ annot</w>
clos ed</w>
ar▁ ks</w>
ar ea▁s</w>
Univer s▁ity</w>
Ju▁ stice</w>
J an
Eng ine
A R</w>
1 .5</w>
▁wal ked</w>
▁threat ened</w>
▁sh ower</w>
▁s ing</w>
▁pr▁ ice</w>
▁exam ined</w>
▁comb ines</w>
▁che ese</w>
▁c alligrap
▁b att
▁D al
▁200 2</w>
w ill
se o▁ng</w>
s try</w>
respon se</w>
op pos
m ale</w>
l an▁d</w>
it self</w>
if ted</w>
h▁ oon</w>
e▁ au</w>
coun cil</w>
con du▁ct</w>
ch urch</w>
ce▁n ter</w>
ann a</w>
V ill
S afe▁ty</w>
Pol icy</w>
P G</w>
J o</w>
As▁ s
7 9</w>
▁th r▁ough</w>
▁relig ion</w>
▁pr aised</w>
▁inf ection</w>
▁for ming</w>
▁exc iting</w>
▁em issions</w>
▁ec ological</w>
▁at tributed</w>
▁W ang</w>
▁S sang
▁M a
▁K n
w a▁t
t▁ ion▁s</w>
sing▁ le</w>
res ult</w>
pr ac▁
plac ▁es</w>
oun▁ d
oper▁ ating</w>
it in▁g</w>
implem ent▁
ili ans</w>
flo o▁r</w>
f a▁r</w>
d▁ es▁
do ing</w>
au▁ gh
ar▁ ts</w>
ar io</w>
and o</w>
ac ro▁ss</w>
D I</w>
▁su b▁
▁rel ▁
▁l ie</w>
▁ful fill</w>
▁f ly</w>
▁conven ed</w>
▁cons ervation</w>
▁attemp ts</w>
▁Se ungri</w>
▁B esides</w>
▁Argent ina</w>
▁200 4</w>
▁ d</w>
w ave</w>
t▁ est</w>
sm oki▁ng</w>
si▁ m
situ▁ at▁ion</w>
sent enc▁ed</w>
ro m
p act</w>
out si▁de</w>
l▁ oc
ky u▁ng</w>
j a▁e</w>
inc ere</w>
in spe▁c
in ema</w>
g an▁
f av
et e▁d</w>
ep ts</w>
ca▁l led</w>
aw ard</w>
at▁ is</w>
T eam</w>
S ome</w>
D o
Com pl▁ex</w>
C er
▁termin al</w>
▁sn ow
▁sm a▁ll</w>
▁p ays</w>
▁mois ture</w>
▁men us</w>
▁for ests</w>
▁doub t</w>
▁defin itely</w>
▁contr ast</w>
▁c eiling</w>
▁bas ement</w>
▁V en
▁M apo</w>
▁Ital ian</w>
▁El ectric</w>
s▁ ary</w>
pers on▁al</w>
par ts</w>
os h
opin ions</w>
on▁g gi</w>
n t</w>
n es▁s</w>
m▁ e▁nt</w>
min ut▁es</w>
iz atio▁n</w>
g▁ il</w>
fur ther</w>
f oot</w>
enti▁ re</w>
ef ▁ul</w>
d▁ ic
dis ast▁er</w>
d aily</w>
con ve▁n
a▁t eg
as er</w>
Su▁ pport</w>
Of▁f ice</w>
Hy ▁un</w>
Co oper
8 2</w>
3▁ 00</w>
2▁ 00</w>
&▁ amp;</w>
▁w ealth</w>
▁tr acking</w>
▁tex ture</w>
▁ter rit
▁or d▁er</w>
▁f ant
▁design er</w>
▁d ancing</w>
▁cl ar
▁ch ampionship</w>
▁D a</w>
ti▁ m
sec u▁re</w>
rel▁ eased</w>
rece ivi▁ng</w>
para▁ gr
ow ner</w>
l▁ abor</w>
loc a▁l</w>
k yung</w>
ic on</w>
hol iday</w>
g ir
ey▁ es</w>
ex clud
d▁ eb
dom in
c annot</w>
Y un</w>
Dis tric▁t</w>
B e▁
▁ul tra</w>
▁transpar ent</w>
▁to▁t al</w>
▁pursu ed</w>
▁ob taining</w>
▁instr uments</w>
▁in ser
▁fe ed
▁el ectr
▁comm and</w>
▁al liance</w>
▁advant ageous</w>
▁Trans portation</w>
▁T ong
▁J a</w>
▁Fu ture</w>
▁A r▁
▁10 0th</w>
w▁ ent</w>
s▁ ea</w>
r▁ ea▁
ro▁ w</w>
re▁ ad</w>
r ates</w>
pu▁ t</w>
por ary</w>
o▁ ff
op port▁
ne eds</w>
mut at▁is</w>
gr▁ow th</w>
ent re
ell ence</w>
a▁b o▁ut</w>
SE AN</w>
O ▁n</w>
0 2</w>
&ap▁os; r▁e</w>
▁wareh ouse</w>
▁ter ror
▁st amp</w>
▁rel ieve</w>
▁p ep
▁is ol
▁draw s</w>
▁conven tion</w>
▁bl ocking</w>
▁U sually</w>
ta▁ tion</w>
su▁b j▁ect</w>
ro▁ v
rec▁e ived</w>
pri▁ se</w>
pe▁ op▁le</w>
ook ie</w>
off i▁cial</w>
no tif
lea ve</w>
in y</w>
h an▁ds</w>
for▁ ce</w>
e▁x per
en ti▁ng</w>
educ ation▁al</w>
dep ar▁tment</w>
con ver
arant ee</w>
al izing</w>
ag▁ er</w>
G ames</w>
3 1st</w>
▁y ear▁s</w>
▁sh ut</w>
▁sc r
▁ret ail
▁rem ote</w>
▁inform atization</w>
▁hon est</w>
▁dismis s</w>
▁T ime</w>
▁K aesong</w>
▁B ong
uc▁ l
u t▁y</w>
u ating</w>
tr▁ ol</w>
ten d</w>
pur s▁u
nat ur▁al</w>
n al</w>
m ic
i▁n c▁e</w>
int▁er est</w>
im prov▁
est a▁b▁
e ur</w>
di agn
c▁l ass</w>
c▁ ap
cur▁ r
compl ex</w>
a▁g re
at eral</w>
arres t▁ed</w>
amp ions</w>
all e▁d</w>
Now o▁n</w>
G o
El em
El ectr
7 6</w>
7 1</w>
▁text books</w>
▁syn ergy</w>
▁sincer ely</w>
▁pregn ancy</w>
▁p h▁
▁mass age</w>
▁judg ing</w>
▁helicop ter</w>
▁dep ression</w>
▁co astal</w>
▁bl oss
▁Po cheon</w>
▁P r▁
▁C o▁mm
w as▁te</w>
tu al▁ly</w>
s▁ al
sched ule</w>
s es▁
pres erv
pos sibili▁ty</w>
or able</w>
off▁ ice</w>
m▁ al</w>
j eo▁ng</w>
i▁n cre
e ive</w>
d▁ et
con f▁
cl ass
c iliation</w>
b▁e▁ come</w>
ap▁p y</w>
an t▁ly</w>
Jos e▁on</w>
C en▁
B raz
Asse▁m bly</w>
▁v eterans</w>
▁thea ters</w>
▁rem emb
▁prov isional</w>
▁dom in
▁cro ps</w>
▁confir ming</w>
un i▁on</w>
tr▁ ip</w>
th▁ er▁e</w>
sur ▁es</w>
su ffici
si t▁
r▁eal l▁y</w>
p on▁
ol ine</w>
off ee</w>
ma▁ king</w>
l ux
k▁ yu</w>
it e▁ms</w>
ig a</w>
headqu a▁r
gen e▁r
ecess or</w>
cu▁ ss
co▁n c▁
ce▁ pt</w>
c aster</w>
at m
af ts</w>
Eco▁n omic</w>
7 4</w>
&▁ap▁os ;▁s</w>
&apo▁s ;
▁there for</w>
▁refr iger
▁r ear</w>
▁oblig ation</w>
▁o uter</w>
▁l aid</w>
▁initi ally</w>
▁i ▁n
▁frequ ency</w>
▁fin ancing</w>
▁do ors</w>
▁coun cil
▁agre ements</w>
▁S iheung</w>
▁N ations</w>
▁Con test</w>
y cles</w>
sum mi▁t</w>
r▁ eg▁
re▁ am</w>
rec ord</w>
prod▁uc ts</w>
produ▁ ction</w>
opin ion</w>
n ot▁
mil▁ lio▁n</w>
incre asing</w>
ff le</w>
ex clus
ev▁ ent</w>
cl▁u b</w>
b▁ ak</w>
beh ind</w>
a▁g ed</w>
as on</w>
ar tif
am ation</w>
adv a▁n
Pol i▁cy</w>
K i▁ng</w>
G en▁
Bareun mir▁ae</w>
7 3</w>
▁wholes ale</w>
▁vol ati
▁ul▁ ar</w>
▁symb ol
▁st ating</w>
▁reserv ed</w>
▁renew ed</w>
▁qu it</w>
▁lod ging</w>
▁green house</w>
▁facilit ate</w>
▁conduc ts</w>
▁con stitutional</w>
▁abol ished</w>
▁Mok po</w>
▁K B</w>
▁Ch i▁na</w>
▁Bu ilding</w>
w a▁r</w>
v▁ ing</w>
ur c▁h</w>
ular ities</w>
ti an</w>
sy▁st e▁m</w>
str en▁g
se▁ t
sa▁ fety</w>
rece ived</w>
rec og▁n
prov ide</w>
l▁ a
l ittle</w>
iv e▁s</w>
if iers</w>
h ost</w>
f▁ il
expr▁ essed</w>
electr▁ ic</w>
eb a▁ll</w>
curr ent</w>
cre d
a▁nn ual</w>
a▁n ks</w>
Viet nam</w>
M apo</w>
3 .
▁su its</w>
▁sh a▁ll</w>
▁rel uc
▁qu ota</w>
▁conver gence</w>
▁ar med</w>
▁al g
▁M al
▁Gwang hwamun</w>
▁Braz ilian</w>
▁1 ,0
vi ew▁
st aff</w>
rai▁ se</w>
p▁ ric
pre pa▁re</w>
pr a▁c
pec tations</w>
n ae</w>
l▁ ist</w>
i▁n v▁
in▁ s</w>
he▁rein afte▁r</w>
environ ment▁al</w>
cre a▁t▁e</w>
co▁ ur
chang es</w>
ar▁ es</w>
ar i▁es</w>
an al▁y
Se o
Ch eon
▁tax is</w>
▁t ies</w>
▁separ ation</w>
▁rob ots</w>
▁r arely</w>
▁prog ressive</w>
▁o f▁f
▁ne tizens</w>
▁mus icians</w>
▁mission ary</w>
▁mag azine</w>
▁in t▁o</w>
▁f o▁und</w>
▁div or
▁aud itor</w>
▁after math</w>
▁Mex ican</w>
▁Inst agram</w>
▁3 .
v illage</w>
un ification</w>
u tio▁n</w>
t▁ alk</w>
tr a▁ns
t een</w>
succ ess</w>
si onal</w>
iz ▁es</w>
if▁ ied</w>
e▁n ted</w>
e▁ up</w>
el der▁ly</w>
educ a▁tion</w>
del eg
comm erc
b ur▁
ass aul
ag encies</w>
D r
▁uplo aded</w>
▁under go</w>
▁th row</w>
▁t ank</w>
▁sec tions</w>
▁recru ited</w>
▁publ ication</w>
▁lea k</w>
▁cu ts</w>
▁abnorm al</w>
▁P ress</w>
▁C O
w▁ h▁
w▁ eek</w>
wi▁ n</w>
v▁ o
um in
tro versy</w>
t om</w>
stud ent▁s</w>
scor ▁ed</w>
s ym
pr▁ ov▁
pr i▁l</w>
pl ane</w>
o▁ ffi▁ce</w>
is▁ ter</w>
int▁ern al</w>
il▁ ities</w>
ick▁ ly</w>
h air</w>
f▁ i
fa th▁er</w>
e▁x c
e▁ ting</w>
exam inati▁on</w>
en j▁oy</w>
d e▁nt</w>
c▁ r▁ea
c▁ her</w>
cl a▁im
ch▁ arg
cer ta▁in</w>
caus ed</w>
br an▁ch</w>
at te▁nd</w>
am ination</w>
W e▁lfare</w>
Se ocho</w>
K w▁on</w>
Gyeongsang nam</w>
Gov▁er▁n m▁ent</w>
C ul▁tural</w>
Ag en▁cy</w>
A ▁t</w>
9 9</w>
▁y uan</w>
▁th reat</w>
▁repres ents</w>
▁qual ifications</w>
▁mon opol
▁kn▁ own</w>
▁fe ed</w>
▁ev▁ ent</w>
▁entr us
▁comm ander</w>
▁class ical</w>
▁Pal ace</w>
▁Nav y</w>
▁F un
▁D okdo</w>
ul a▁r</w>
s▁ it
st ro
sa▁ fe</w>
s en</w>
relation sh▁ip</w>
reg ulations</w>
pr▁o bl
pr is▁on</w>
ph y▁
or▁ der</w>
ophis tic
oo d▁s</w>
l oss</w>
in sp
f es▁tiv
ec tio▁n</w>
d▁ oc
c▁ oll
consider ▁ed</w>
T F</w>
Sec▁ urity</w>
P y
In nov
Govern men▁t</w>
Dem ocr▁atic</w>
Ch ief</w>
▁tr ucks</w>
▁th inks</w>
▁obser ve</w>
▁l uck</w>
▁func tional</w>
▁f ounder</w>
▁er rors</w>
▁entreprene urs</w>
▁en ding</w>
▁des truction</w>
▁acqu ire</w>
▁A rea</w>
y ro
v▁is it</w>
us ter</w>
tain me▁nt</w>
st▁ ep</w>
shi▁ ps</w>
s elli▁ng</w>
on e▁s</w>
n eed▁ed</w>
m ap</w>
dire▁c t▁or</w>
des ign▁
compl ete</w>
charg es</w>
b er▁
ar▁ ch</w>
answ er</w>
Univer▁ sity</w>
T he▁
S a
Ordi▁n a▁nc▁e</w>
O ▁n
M▁ in
F ound▁
E m▁
D▁ ec
▁u r</w>
▁t e▁r
▁st agn
▁sk ill</w>
▁restor ed</w>
▁pain ful</w>
▁mus h
▁l ies</w>
▁k ey
▁ju ice</w>
▁esc al
▁cur iosity</w>
▁arr ang
▁ap par
▁al s▁o</w>
▁With out</w>
▁M ake</w>
▁F ootball</w>
y e▁r</w>
val u
to▁ p</w>
reduc ▁ed</w>
pro por
pla▁n n▁ing</w>
i▁ ety</w>
it ement</w>
h▁ ea
h appen
g e▁st</w>
f▁ ee</w>
fur th▁er</w>
forc▁ ement</w>
est ate</w>
ec tious</w>
e u▁p</w>
e q▁u
du ties</w>
c▁ en▁ter</w>
coun tr▁y</w>
ch u▁l</w>
c ra▁
c a▁nd
at eg▁
agre▁ ed</w>
ac▁ ks</w>
T E</w>
S ohn</w>
P ea▁ce</w>
[...]
